#pragma once

const unsigned char model_int8_tflite[] = {
0x20, 0x00, 0x00, 0x00, 0x54, 0x46, 0x4c, 0x33, 0x00, 0x00, 0x00, 0x00, 
0x14, 0x00, 0x20, 0x00, 0x1c, 0x00, 0x18, 0x00, 0x14, 0x00, 0x10, 0x00, 
0x0c, 0x00, 0x00, 0x00, 0x08, 0x00, 0x04, 0x00, 0x14, 0x00, 0x00, 0x00, 
0x1c, 0x00, 0x00, 0x00, 0x9c, 0x00, 0x00, 0x00, 0xf4, 0x00, 0x00, 0x00, 
0xd8, 0x1f, 0x00, 0x00, 0xe8, 0x1f, 0x00, 0x00, 0xcc, 0x25, 0x00, 0x00, 
0x03, 0x00, 0x00, 0x00, 0x01, 0x00, 0x00, 0x00, 0x10, 0x00, 0x00, 0x00, 
0x00, 0x00, 0x0a, 0x00, 0x10, 0x00, 0x0c, 0x00, 0x08, 0x00, 0x04, 0x00, 
0x0a, 0x00, 0x00, 0x00, 0x0c, 0x00, 0x00, 0x00, 0x1c, 0x00, 0x00, 0x00, 
0x3c, 0x00, 0x00, 0x00, 0x0f, 0x00, 0x00, 0x00, 0x73, 0x65, 0x72, 0x76, 
0x69, 0x6e, 0x67, 0x5f, 0x64, 0x65, 0x66, 0x61, 0x75, 0x6c, 0x74, 0x00, 
0x01, 0x00, 0x00, 0x00, 0x04, 0x00, 0x00, 0x00, 0x8c, 0xff, 0xff, 0xff, 
0x09, 0x00, 0x00, 0x00, 0x04, 0x00, 0x00, 0x00, 0x08, 0x00, 0x00, 0x00, 
0x6f, 0x75, 0x74, 0x70, 0x75, 0x74, 0x5f, 0x30, 0x00, 0x00, 0x00, 0x00, 
0x01, 0x00, 0x00, 0x00, 0x04, 0x00, 0x00, 0x00, 0xf6, 0xe0, 0xff, 0xff, 
0x04, 0x00, 0x00, 0x00, 0x11, 0x00, 0x00, 0x00, 0x6b, 0x65, 0x72, 0x61, 
0x73, 0x5f, 0x74, 0x65, 0x6e, 0x73, 0x6f, 0x72, 0x5f, 0x32, 0x34, 0x32, 
0x33, 0x00, 0x00, 0x00, 0x02, 0x00, 0x00, 0x00, 0x34, 0x00, 0x00, 0x00, 
0x04, 0x00, 0x00, 0x00, 0xdc, 0xff, 0xff, 0xff, 0x0c, 0x00, 0x00, 0x00, 
0x04, 0x00, 0x00, 0x00, 0x13, 0x00, 0x00, 0x00, 0x43, 0x4f, 0x4e, 0x56, 
0x45, 0x52, 0x53, 0x49, 0x4f, 0x4e, 0x5f, 0x4d, 0x45, 0x54, 0x41, 0x44, 
0x41, 0x54, 0x41, 0x00, 0x08, 0x00, 0x0c, 0x00, 0x08, 0x00, 0x04, 0x00, 
0x08, 0x00, 0x00, 0x00, 0x0b, 0x00, 0x00, 0x00, 0x04, 0x00, 0x00, 0x00, 
0x13, 0x00, 0x00, 0x00, 0x6d, 0x69, 0x6e, 0x5f, 0x72, 0x75, 0x6e, 0x74, 
0x69, 0x6d, 0x65, 0x5f, 0x76, 0x65, 0x72, 0x73, 0x69, 0x6f, 0x6e, 0x00, 
0x0d, 0x00, 0x00, 0x00, 0xe0, 0x1e, 0x00, 0x00, 0xd8, 0x1e, 0x00, 0x00, 
0x88, 0x1e, 0x00, 0x00, 0x30, 0x1e, 0x00, 0x00, 0x1c, 0x1e, 0x00, 0x00, 
0xcc, 0x1d, 0x00, 0x00, 0xbc, 0x19, 0x00, 0x00, 0xac, 0x00, 0x00, 0x00, 
0xa4, 0x00, 0x00, 0x00, 0x9c, 0x00, 0x00, 0x00, 0x94, 0x00, 0x00, 0x00, 
0x74, 0x00, 0x00, 0x00, 0x04, 0x00, 0x00, 0x00, 0xaa, 0xe1, 0xff, 0xff, 
0x04, 0x00, 0x00, 0x00, 0x60, 0x00, 0x00, 0x00, 0x0c, 0x00, 0x00, 0x00, 
0x08, 0x00, 0x0e, 0x00, 0x08, 0x00, 0x04, 0x00, 0x08, 0x00, 0x00, 0x00, 
0x10, 0x00, 0x00, 0x00, 0x28, 0x00, 0x00, 0x00, 0x00, 0x00, 0x06, 0x00, 
0x08, 0x00, 0x04, 0x00, 0x06, 0x00, 0x00, 0x00, 0x04, 0x00, 0x00, 0x00, 
0x01, 0x00, 0x00, 0x00, 0xea, 0x03, 0x00, 0x00, 0x0c, 0x00, 0x18, 0x00, 
0x14, 0x00, 0x10, 0x00, 0x0c, 0x00, 0x04, 0x00, 0x0c, 0x00, 0x00, 0x00, 
0x1f, 0x88, 0x52, 0x65, 0x32, 0x51, 0x11, 0x49, 0x02, 0x00, 0x00, 0x00, 
0x02, 0x00, 0x00, 0x00, 0x04, 0x00, 0x00, 0x00, 0x06, 0x00, 0x00, 0x00, 
0x32, 0x2e, 0x32, 0x30, 0x2e, 0x30, 0x00, 0x00, 0x16, 0xe2, 0xff, 0xff, 
0x04, 0x00, 0x00, 0x00, 0x10, 0x00, 0x00, 0x00, 0x32, 0x2e, 0x31, 0x37, 
0x2e, 0x30, 0x00, 0x00, 0x00, 0x00, 0x00, 0x00, 0x00, 0x00, 0x00, 0x00, 
0x18, 0xdc, 0xff, 0xff, 0x1c, 0xdc, 0xff, 0xff, 0x20, 0xdc, 0xff, 0xff, 
0x3e, 0xe2, 0xff, 0xff, 0x04, 0x00, 0x00, 0x00, 0x00, 0x19, 0x00, 0x00, 
0x91, 0xc5, 0xaf, 0xbe, 0x81, 0xbe, 0x8f, 0xc1, 0xa8, 0xbc, 0xa5, 0xa2, 
0x97, 0xb0, 0xc9, 0xe1, 0xd7, 0xe1, 0xa0, 0xce, 0xf1, 0xf1, 0xbb, 0xa3, 
0xb5, 0xe3, 0xaf, 0xfa, 0x9f, 0xad, 0xe3, 0xcb, 0x9c, 0xaf, 0xb8, 0xfc, 
0xcb, 0xde, 0xb8, 0xe0, 0x0a, 0xd7, 0xc9, 0x0c, 0xc7, 0x11, 0xf9, 0xef, 
0x00, 0xbd, 0xcd, 0xb4, 0x03, 0xb5, 0xd3, 0x0b, 0xc5, 0xe0, 0xd5, 0xc3, 
0xc9, 0xaf, 0xca, 0xae, 0xd0, 0xa0, 0xee, 0x03, 0xb1, 0xee, 0xbc, 0xae, 
0xa2, 0xfc, 0xc2, 0xcd, 0xd2, 0xcc, 0xe9, 0xc6, 0xe3, 0xbe, 0xca, 0xa8, 
0xef, 0xd6, 0xaa, 0xe7, 0xaa, 0x06, 0xe2, 0xd6, 0xcd, 0xa8, 0xdf, 0xd7, 
0xcd, 0xea, 0xc7, 0xc4, 0xbe, 0x95, 0xea, 0xf4, 0xb2, 0x00, 0xa0, 0xba, 
0xf5, 0xa9, 0xf6, 0x01, 0xdc, 0xc5, 0xb8, 0xb7, 0xe8, 0x01, 0xda, 0xd3, 
0xf3, 0xc6, 0xec, 0xfa, 0xe2, 0xfa, 0x04, 0xc7, 0xf5, 0x17, 0xcc, 0xd6, 
0xeb, 0xc6, 0x1e, 0xfd, 0xc6, 0x1c, 0xde, 0xc4, 0xd6, 0x1f, 0xfe, 0xea, 
0x1e, 0xd0, 0xc8, 0xcd, 0x18, 0x2a, 0xce, 0xfd, 0x1f, 0xf7, 0x12, 0xdf, 
0x24, 0xfa, 0xea, 0xeb, 0x2f, 0xf4, 0x16, 0x2d, 0xd3, 0x1d, 0x05, 0x0d, 
0xe1, 0xf3, 0xd3, 0xe3, 0x22, 0xef, 0xd5, 0x0a, 0xef, 0x31, 0x27, 0xe6, 
0x01, 0x2b, 0x1b, 0xc6, 0xf6, 0xe0, 0xe3, 0xc8, 0x22, 0x1e, 0xce, 0x09, 
0xfa, 0xf9, 0x03, 0x14, 0x2c, 0x19, 0x02, 0x1a, 0x15, 0x23, 0xd3, 0xe4, 
0x11, 0xd8, 0x0c, 0xc9, 0x19, 0x14, 0x08, 0xec, 0x29, 0xf8, 0x22, 0x35, 
0xda, 0xf6, 0x36, 0x00, 0x0b, 0x1b, 0x0e, 0x34, 0x1f, 0xfd, 0x0e, 0xee, 
0x48, 0x1d, 0x1c, 0x05, 0x12, 0x4e, 0x2c, 0x0f, 0x41, 0xff, 0x4e, 0x0b, 
0x20, 0x1d, 0x2b, 0x3d, 0x2e, 0x14, 0x5d, 0x5a, 0x45, 0x1d, 0x2a, 0x2f, 
0x3a, 0x07, 0x0e, 0x29, 0x54, 0x20, 0x37, 0x3e, 0x0e, 0x36, 0x1c, 0x44, 
0x50, 0x08, 0x24, 0x1d, 0x57, 0x65, 0x18, 0x2b, 0x0d, 0x63, 0x26, 0x24, 
0x46, 0x5a, 0x69, 0x46, 0x0a, 0x34, 0x22, 0x20, 0x54, 0x37, 0x2e, 0x4f, 
0x2d, 0x59, 0xff, 0x17, 0x21, 0x3b, 0x33, 0x56, 0x4e, 0x66, 0x1f, 0x45, 
0x31, 0x11, 0x4b, 0x39, 0x39, 0x53, 0x1f, 0x42, 0x27, 0x51, 0x20, 0x17, 
0x25, 0x47, 0x27, 0x4e, 0x2c, 0x19, 0x58, 0x4e, 0x14, 0x21, 0x3b, 0x1d, 
0x24, 0x3f, 0x0d, 0x20, 0x51, 0x63, 0x21, 0x56, 0x66, 0x69, 0x24, 0x1a, 
0x2a, 0x21, 0x60, 0x38, 0x61, 0x0b, 0x24, 0x12, 0x33, 0x10, 0x47, 0x24, 
0x48, 0x1a, 0xfb, 0x47, 0x12, 0x5a, 0x2e, 0x27, 0x24, 0x3c, 0x08, 0x33, 
0x58, 0x0c, 0x56, 0x53, 0x60, 0x13, 0x2a, 0x10, 0xff, 0xfc, 0xfb, 0x00, 
0xf5, 0x33, 0x48, 0x21, 0x3b, 0x36, 0xf2, 0x06, 0x30, 0x13, 0xf6, 0x09, 
0x24, 0x15, 0x06, 0x4a, 0x23, 0x42, 0xe0, 0x20, 0x17, 0x0a, 0x0a, 0x28, 
0xf3, 0x14, 0x2e, 0xe2, 0x70, 0x2a, 0x6d, 0x77, 0x31, 0x6f, 0x11, 0x16, 
0x79, 0x09, 0x65, 0x48, 0x69, 0x22, 0x6f, 0x58, 0xf6, 0xf7, 0x26, 0x59, 
0x3c, 0x1f, 0x55, 0x4a, 0x1c, 0xe7, 0x1c, 0xea, 0x0d, 0xdf, 0x1b, 0xe8, 
0xff, 0x2b, 0x0a, 0x30, 0x2d, 0x32, 0x18, 0xf2, 0xf1, 0x3a, 0x10, 0x09, 
0x33, 0x37, 0x1e, 0xd6, 0x08, 0x12, 0x36, 0xeb, 0x1a, 0x0a, 0x33, 0xe5, 
0xed, 0xfe, 0x0d, 0xee, 0x09, 0x20, 0xf4, 0x1a, 0x45, 0xcf, 0x15, 0x47, 
0xce, 0x01, 0x06, 0xeb, 0x28, 0x3a, 0x3b, 0x4b, 0x34, 0xf7, 0x0e, 0xf7, 
0xd7, 0x51, 0x5a, 0xfd, 0x1e, 0xec, 0x1f, 0x56, 0xe0, 0x12, 0x3f, 0xfd, 
0xec, 0x1e, 0x07, 0x1d, 0x06, 0xfd, 0x3a, 0x32, 0x05, 0x26, 0x12, 0x5a, 
0x07, 0xfe, 0x13, 0xeb, 0x1e, 0x15, 0xeb, 0x56, 0x00, 0x48, 0x18, 0xe2, 
0xd8, 0x42, 0x01, 0xf4, 0xf9, 0xc9, 0x07, 0xc5, 0x2f, 0x1f, 0x1d, 0x0e, 
0xfa, 0xca, 0xe0, 0x02, 0x18, 0xce, 0x09, 0x06, 0x14, 0x2b, 0x3a, 0x1c, 
0x24, 0x19, 0x26, 0x31, 0xe7, 0x22, 0xf8, 0xde, 0x09, 0xf3, 0xdc, 0x2e, 
0xb8, 0xc2, 0xdd, 0x00, 0x26, 0x1a, 0xf2, 0x20, 0xc2, 0xfb, 0x07, 0x26, 
0xc2, 0x18, 0x21, 0x20, 0x1f, 0x0d, 0xce, 0xc6, 0xbd, 0xcc, 0x29, 0xf5, 
0x34, 0xbe, 0x06, 0x1f, 0xfc, 0xf3, 0x28, 0x39, 0x36, 0x2c, 0x0d, 0x3f, 
0x13, 0x0d, 0xf9, 0x1b, 0xd1, 0x12, 0xde, 0xee, 0x2b, 0xee, 0xff, 0x05, 
0xe6, 0xee, 0x2e, 0x52, 0xdb, 0x39, 0x42, 0x38, 0xee, 0xfc, 0xfa, 0x3b, 
0xeb, 0x2c, 0x11, 0xd7, 0x1b, 0x1e, 0xd4, 0xd0, 0xd2, 0x38, 0xca, 0x0c, 
0xfd, 0x08, 0x13, 0xce, 0x1e, 0x24, 0xe0, 0xfe, 0xd2, 0xb7, 0x24, 0x01, 
0xc0, 0xca, 0xe5, 0xc1, 0x28, 0xe6, 0x18, 0x12, 0x26, 0xe3, 0xf1, 0x20, 
0x02, 0xb7, 0x12, 0xd8, 0xba, 0xb6, 0xa0, 0x1a, 0xb4, 0xbe, 0xa5, 0xd5, 
0x9b, 0xdc, 0xb7, 0xa8, 0xef, 0xaa, 0x10, 0xa7, 0xd6, 0x9c, 0x1e, 0xfd, 
0xea, 0xc5, 0x0d, 0xfd, 0xff, 0xdd, 0xd0, 0xf8, 0xd3, 0xc4, 0xfd, 0xee, 
0x27, 0x0b, 0x25, 0xc2, 0x1f, 0xfa, 0x26, 0xc0, 0xbf, 0x2a, 0xff, 0xef, 
0xf7, 0xda, 0x09, 0x37, 0xcd, 0xf5, 0xf2, 0x1e, 0x28, 0xce, 0xd4, 0xd1, 
0xfb, 0x23, 0xd4, 0xc7, 0x08, 0xe4, 0x32, 0xee, 0x07, 0xd5, 0xe7, 0x23, 
0xcf, 0x3a, 0x1e, 0xff, 0x38, 0xe1, 0xe2, 0xd0, 0x34, 0x15, 0xf6, 0xba, 
0x09, 0x20, 0xdc, 0xbc, 0x20, 0x27, 0x32, 0xde, 0xc7, 0x23, 0x1c, 0x09, 
0xec, 0x2a, 0x15, 0x35, 0xeb, 0x17, 0x31, 0xe6, 0x24, 0xf2, 0x06, 0xff, 
0x49, 0x26, 0xfc, 0x35, 0xf8, 0x31, 0x22, 0x3a, 0xda, 0xe3, 0xef, 0x40, 
0x18, 0xdd, 0xfe, 0xf1, 0xf0, 0x4c, 0x05, 0x22, 0x01, 0x0c, 0x3d, 0x13, 
0x05, 0x5a, 0x19, 0x02, 0xf6, 0x69, 0xf1, 0x6c, 0x2f, 0x0d, 0x42, 0x6d, 
0x11, 0x61, 0x2d, 0x7f, 0x48, 0x52, 0x68, 0x6d, 0x4a, 0x48, 0x3d, 0x2b, 
0xf1, 0x08, 0x01, 0x51, 0x41, 0x41, 0x4d, 0x10, 0x14, 0x3f, 0x0c, 0x1b, 
0xfe, 0x32, 0x49, 0xef, 0x4e, 0xe6, 0xf2, 0x11, 0x0b, 0x27, 0x45, 0x04, 
0x08, 0x20, 0xf3, 0x43, 0xfe, 0x11, 0x29, 0x3e, 0xfa, 0x47, 0x23, 0xf5, 
0x03, 0x26, 0xf0, 0x37, 0xf7, 0x46, 0x17, 0x34, 0x32, 0x3c, 0x05, 0xf0, 
0x0d, 0x23, 0x41, 0x49, 0xf8, 0x32, 0x2b, 0x0e, 0xea, 0x17, 0x0a, 0xfa, 
0x2d, 0x0b, 0xff, 0x01, 0xdd, 0x38, 0x23, 0x07, 0x22, 0x2a, 0x12, 0xe3, 
0x32, 0x26, 0xe3, 0x3e, 0x33, 0x3c, 0x12, 0x1b, 0x1c, 0xff, 0x5a, 0x47, 
0x2f, 0x18, 0x55, 0x10, 0x1a, 0xfc, 0xf6, 0x1d, 0xfc, 0xf1, 0x3e, 0x42, 
0x4a, 0x4e, 0x58, 0x1a, 0xe7, 0x4e, 0x0f, 0x03, 0x16, 0xf4, 0x13, 0xe1, 
0x07, 0xfa, 0x34, 0x10, 0xf1, 0xe0, 0x2b, 0xf2, 0x06, 0x0c, 0x00, 0x07, 
0x37, 0x17, 0x15, 0xe9, 0x2d, 0x29, 0x09, 0xf8, 0xfc, 0xe2, 0x0b, 0x31, 
0x1f, 0x0e, 0x2c, 0xe9, 0x33, 0xd1, 0xd2, 0x23, 0xed, 0xd0, 0xcc, 0x26, 
0x0a, 0x24, 0x06, 0xdd, 0xfc, 0xe3, 0xdb, 0xfe, 0xcb, 0x01, 0x15, 0xc7, 
0xf0, 0xb7, 0xea, 0xe1, 0xe7, 0xef, 0xd2, 0x07, 0x0f, 0x0f, 0xde, 0xd7, 
0xe3, 0xea, 0xca, 0xee, 0xcd, 0xf4, 0x0e, 0xe9, 0xed, 0xdb, 0x3b, 0xf3, 
0xdd, 0x28, 0x25, 0x1d, 0xe5, 0x02, 0x3c, 0xf5, 0x34, 0x20, 0xe6, 0x33, 
0xf5, 0xf3, 0x43, 0xee, 0x2a, 0x25, 0x0f, 0xed, 0xe6, 0xe6, 0x31, 0x0b, 
0x1a, 0xdf, 0x11, 0xec, 0x3f, 0x29, 0x00, 0x02, 0x23, 0xfd, 0xe5, 0x08, 
0xe4, 0x3f, 0xf2, 0xfd, 0x3b, 0xd5, 0x1f, 0xee, 0x3e, 0x36, 0x10, 0x1f, 
0xf1, 0xe3, 0x09, 0x09, 0x22, 0x1a, 0x2f, 0x25, 0xd6, 0xe5, 0x15, 0x20, 
0x29, 0xde, 0xe2, 0xd9, 0xfc, 0xca, 0xc3, 0x2a, 0xe2, 0xfd, 0x21, 0x1a, 
0xec, 0x11, 0xd4, 0xe2, 0x1d, 0xb9, 0xf0, 0xcb, 0xdc, 0x0d, 0xc0, 0xcd, 
0x12, 0xe7, 0x13, 0xf6, 0xc6, 0xff, 0x1d, 0xd0, 0xea, 0x11, 0x1f, 0xff, 
0xdb, 0x11, 0xbe, 0xd6, 0xcd, 0xd2, 0xdd, 0x32, 0xeb, 0xdb, 0x36, 0xce, 
0xce, 0x24, 0x1e, 0x1d, 0xf9, 0xdd, 0x14, 0xf5, 0xfd, 0x0e, 0x3a, 0x02, 
0xea, 0xe0, 0x1d, 0x1e, 0x14, 0x43, 0x3b, 0xfc, 0x11, 0x13, 0xec, 0x34, 
0xf0, 0x0e, 0xda, 0xf7, 0x0b, 0x07, 0x03, 0x32, 0xeb, 0x29, 0x10, 0x2d, 
0xff, 0x17, 0x3c, 0xe5, 0x28, 0xce, 0xd8, 0x32, 0xe9, 0xf9, 0x32, 0x16, 
0x2b, 0x33, 0x43, 0x15, 0xe3, 0x25, 0x35, 0x17, 0xfc, 0xd6, 0xe0, 0x2d, 
0xd4, 0x0e, 0x1d, 0xd4, 0x16, 0x31, 0x27, 0x24, 0x36, 0x3c, 0xf0, 0x26, 
0xdb, 0xea, 0x05, 0xef, 0xd6, 0x3b, 0x28, 0x1b, 0x19, 0xd7, 0xd9, 0xec, 
0xee, 0xdd, 0xe3, 0xf3, 0x42, 0xfd, 0x4c, 0xf7, 0x55, 0xfe, 0x4c, 0x39, 
0x3b, 0x13, 0x5e, 0x0d, 0x10, 0x0a, 0x2a, 0x1b, 0x39, 0x5a, 0x4e, 0x7f, 
0xf2, 0xab, 0xbf, 0xdc, 0x04, 0xe5, 0xd4, 0xfa, 0xaf, 0xaf, 0xde, 0xe5, 
0xdc, 0xe3, 0x0d, 0xc0, 0xdd, 0x00, 0xd1, 0xff, 0xb5, 0xe7, 0xdc, 0xd9, 
0x01, 0xfa, 0xdd, 0x0c, 0xbb, 0xd3, 0xdd, 0xc2, 0x0d, 0xcb, 0xd3, 0x0e, 
0xc1, 0xc0, 0x0a, 0xe0, 0xd4, 0xe5, 0x14, 0xff, 0xe5, 0xfa, 0xef, 0xf5, 
0xef, 0xd2, 0xfd, 0xdd, 0xcf, 0xf3, 0xfe, 0xe3, 0xd3, 0xfd, 0xc0, 0xfe, 
0xdf, 0xc9, 0xf0, 0xea, 0x09, 0x18, 0xdf, 0xd5, 0x0d, 0xc6, 0xe3, 0xd5, 
0xdd, 0x20, 0xe9, 0xe6, 0xed, 0x12, 0xf8, 0xdb, 0x0e, 0xd7, 0x0e, 0xd8, 
0x0a, 0x1f, 0x0c, 0xd3, 0xcb, 0x15, 0x18, 0xd0, 0xd5, 0xed, 0x1e, 0x0b, 
0xde, 0xd3, 0xe3, 0x06, 0xdd, 0x15, 0x01, 0xf2, 0x08, 0xfe, 0xe0, 0x1d, 
0x19, 0xf5, 0xf5, 0xe9, 0xd1, 0xde, 0xf5, 0xf7, 0xeb, 0xce, 0xe3, 0x05, 
0xd0, 0xea, 0xfe, 0xc7, 0x04, 0xf2, 0x06, 0x0f, 0xd5, 0xd2, 0x19, 0xd5, 
0xf8, 0xfb, 0xff, 0x0a, 0xfa, 0xde, 0x0d, 0xf3, 0x20, 0x12, 0xdb, 0xf1, 
0x13, 0xd9, 0xe2, 0xcc, 0x0b, 0x09, 0xec, 0xc2, 0xc1, 0xd6, 0x03, 0xfe, 
0xfa, 0x06, 0xc1, 0xcb, 0xd9, 0x11, 0xcb, 0xd7, 0xfb, 0xf2, 0x03, 0xc3, 
0xcf, 0x14, 0x00, 0xf4, 0x1a, 0x0a, 0xcd, 0x0f, 0xda, 0xfb, 0xf3, 0xf5, 
0xf0, 0x0f, 0xf2, 0x16, 0xf0, 0x04, 0x04, 0x2d, 0x18, 0xe5, 0xf1, 0x14, 
0x07, 0xec, 0xd8, 0xeb, 0x22, 0xff, 0xee, 0x27, 0x1b, 0x0e, 0x08, 0x04, 
0x1a, 0xf0, 0x1b, 0xf8, 0xf2, 0xf8, 0xff, 0xdc, 0xe9, 0x03, 0xfc, 0xeb, 
0x0d, 0x29, 0x18, 0xe4, 0x1a, 0x10, 0xf3, 0xfc, 0xf1, 0x23, 0x28, 0x15, 
0xfd, 0xf7, 0x16, 0x00, 0x00, 0x0c, 0xf1, 0x03, 0x15, 0x1a, 0xeb, 0xea, 
0xe7, 0x02, 0xf4, 0xf8, 0xfe, 0x04, 0x34, 0x17, 0xe0, 0x1a, 0xf7, 0x12, 
0x14, 0xd6, 0xde, 0x0f, 0x0c, 0x12, 0xf3, 0x22, 0xf2, 0x02, 0x2a, 0xf9, 
0x02, 0xfe, 0x09, 0xf5, 0x0e, 0x29, 0xed, 0x23, 0xf4, 0xed, 0x29, 0x16, 
0x29, 0x0a, 0x03, 0x1e, 0x05, 0xfe, 0xeb, 0x0e, 0x0e, 0x3b, 0x2f, 0x23, 
0x2d, 0xf1, 0x00, 0x16, 0x18, 0x06, 0xf9, 0xff, 0x32, 0x3c, 0x01, 0x23, 
0x3d, 0x2a, 0x2f, 0xf8, 0x02, 0x12, 0xee, 0xec, 0x04, 0x0c, 0xf7, 0x1e, 
0xec, 0x03, 0x2a, 0x1a, 0x3e, 0x21, 0xef, 0x0d, 0x0d, 0x1f, 0x15, 0x16, 
0xe9, 0x31, 0xef, 0x1d, 0xfa, 0x29, 0x19, 0xea, 0x32, 0x17, 0xea, 0xed, 
0x3c, 0xf5, 0x26, 0x20, 0xf9, 0xfd, 0xef, 0x16, 0x0b, 0x29, 0x11, 0xf4, 
0x29, 0xfb, 0x2b, 0x41, 0x01, 0x38, 0x1b, 0x28, 0x04, 0x34, 0x46, 0x05, 
0x35, 0x40, 0xf8, 0x2e, 0x07, 0x04, 0x23, 0x4f, 0x14, 0x4e, 0x2b, 0x27, 
0x50, 0x40, 0x12, 0x34, 0x22, 0x0b, 0x4a, 0x52, 0x0f, 0x23, 0x10, 0x4b, 
0x35, 0x3e, 0x68, 0x32, 0x1d, 0x64, 0x2e, 0x58, 0x6c, 0x4b, 0x28, 0x60, 
0x41, 0x72, 0x7f, 0x52, 0xdf, 0xa8, 0xa2, 0xdf, 0x12, 0xd6, 0x93, 0xe1, 
0x08, 0xa8, 0xa0, 0x00, 0xed, 0xce, 0x0e, 0x14, 0xf6, 0xe4, 0xed, 0xa7, 
0xb6, 0xd3, 0x00, 0x09, 0x35, 0x20, 0xe6, 0xec, 0xe5, 0xa8, 0x13, 0xb6, 
0xb0, 0xfe, 0xed, 0xfa, 0xcd, 0x02, 0xbf, 0x9a, 0x18, 0xf1, 0xa9, 0xd3, 
0x23, 0x08, 0xc3, 0xae, 0x24, 0xad, 0xf5, 0xc5, 0xa9, 0x9c, 0x9a, 0xc8, 
0x92, 0xc2, 0x17, 0xb3, 0xc6, 0x0e, 0xea, 0xea, 0xad, 0xb5, 0xdd, 0xfe, 
0x1c, 0x21, 0xd4, 0x29, 0xa4, 0xfc, 0xbb, 0xbd, 0xbe, 0xef, 0xe6, 0xde, 
0xf3, 0xa4, 0xd2, 0x12, 0xfa, 0xc4, 0xa3, 0x20, 0x22, 0x01, 0x25, 0xf3, 
0xf9, 0xe1, 0xf1, 0x16, 0x33, 0xac, 0xb8, 0xe6, 0xd5, 0xe4, 0x11, 0xc8, 
0xf0, 0x18, 0x07, 0xfd, 0xf9, 0x34, 0xc3, 0x4a, 0xf6, 0x3d, 0x52, 0x45, 
0x24, 0xcb, 0xd9, 0xd4, 0x21, 0x50, 0x54, 0x2a, 0x3c, 0x37, 0x1c, 0x1d, 
0xfb, 0x27, 0x0d, 0xdc, 0x58, 0x40, 0xd2, 0x21, 0x04, 0xf2, 0xcc, 0x2f, 
0xc9, 0xdc, 0x1e, 0x3f, 0xf3, 0x03, 0x4c, 0x1e, 0x0b, 0x63, 0x42, 0x41, 
0x09, 0x32, 0xec, 0xfa, 0xd4, 0x53, 0x50, 0xde, 0x1b, 0xce, 0x2c, 0xd0, 
0x3e, 0xf8, 0xf4, 0x01, 0xed, 0x49, 0x51, 0xee, 0xf9, 0x23, 0x35, 0x58, 
0x3c, 0x55, 0x50, 0xd7, 0x27, 0x31, 0xde, 0xf7, 0xf1, 0x04, 0x32, 0x23, 
0xde, 0x18, 0xc0, 0xcd, 0xc1, 0x21, 0x19, 0xf7, 0xd7, 0x34, 0x1a, 0xe7, 
0xc0, 0x06, 0xe7, 0x17, 0x35, 0x02, 0xda, 0x2d, 0xe2, 0xfe, 0x32, 0x3a, 
0x07, 0x45, 0x3d, 0x28, 0x5f, 0x4e, 0x34, 0x6d, 0x33, 0x44, 0x68, 0x56, 
0x67, 0x5d, 0x5e, 0x07, 0xed, 0x38, 0x35, 0x64, 0x62, 0x4a, 0xea, 0x01, 
0x50, 0xf7, 0x70, 0x55, 0xf0, 0x51, 0x5a, 0x3d, 0x49, 0x06, 0x31, 0x5a, 
0x59, 0x42, 0x49, 0x34, 0x46, 0x29, 0x6a, 0x20, 0x6a, 0x39, 0x51, 0x31, 
0x68, 0x12, 0xfc, 0x06, 0x72, 0x41, 0x14, 0x01, 0x34, 0x02, 0x66, 0x69, 
0x29, 0x32, 0x5c, 0xf4, 0x2b, 0xfb, 0x3f, 0xfa, 0x57, 0x51, 0x79, 0x3d, 
0x20, 0xeb, 0x41, 0x0a, 0x74, 0x5b, 0xe5, 0xf2, 0x64, 0x14, 0x67, 0xed, 
0xff, 0x11, 0x53, 0x58, 0x61, 0x2a, 0x12, 0x61, 0x25, 0x40, 0x0c, 0xfe, 
0xe5, 0xfb, 0x49, 0x3b, 0x01, 0x00, 0x63, 0x00, 0x5f, 0x49, 0x35, 0x39, 
0x49, 0x42, 0x04, 0x5d, 0x10, 0x17, 0x10, 0xf5, 0x00, 0x34, 0x38, 0xf4, 
0xf9, 0x1c, 0xfb, 0x7f, 0x73, 0x6c, 0x29, 0x73, 0x3f, 0xf1, 0xf7, 0xfa, 
0x65, 0x15, 0x49, 0x61, 0x47, 0xf0, 0x0b, 0xf5, 0x52, 0x05, 0x1d, 0x2f, 
0x32, 0x5d, 0x37, 0x06, 0x34, 0xe2, 0x50, 0x23, 0x4a, 0x45, 0x48, 0xe4, 
0x5a, 0xd1, 0x0c, 0xe2, 0xfb, 0x3f, 0x43, 0x2f, 0x02, 0x27, 0x29, 0xc8, 
0x09, 0x2e, 0xfb, 0x3e, 0xe7, 0x3c, 0x0f, 0xe2, 0x19, 0x1d, 0x19, 0xf3, 
0xe0, 0xf9, 0x9f, 0xf3, 0x14, 0xf1, 0xca, 0x0f, 0xc7, 0xae, 0x81, 0x83, 
0xc2, 0xc5, 0xa3, 0x8b, 0x8b, 0x87, 0xa8, 0xcc, 0x85, 0xb7, 0x94, 0xc6, 
0x9e, 0xd9, 0x9e, 0xe4, 0xdc, 0x98, 0xb6, 0xd7, 0xea, 0xa2, 0xac, 0xa2, 
0xd7, 0xe5, 0xbc, 0xd9, 0xae, 0xa5, 0xb2, 0xa8, 0xed, 0xb5, 0xbc, 0xdc, 
0xbc, 0xf6, 0xcb, 0xe5, 0xf0, 0xaf, 0xdd, 0xe7, 0xf6, 0xb9, 0xd5, 0xcf, 
0xfe, 0xeb, 0xe4, 0xae, 0xd7, 0xbf, 0xc7, 0xe2, 0xc0, 0xb4, 0xe5, 0xbe, 
0xf2, 0xb8, 0xf5, 0xb0, 0xd3, 0xbd, 0xbc, 0x9b, 0xb1, 0xe8, 0xba, 0xbf, 
0xd2, 0xe8, 0xb7, 0xc3, 0x9d, 0xba, 0xd9, 0xd2, 0xac, 0xa2, 0xb3, 0xe6, 
0xef, 0xbc, 0xdf, 0xc2, 0xc9, 0xaa, 0xdf, 0xf5, 0xac, 0xf3, 0xe3, 0xb2, 
0xb7, 0x9e, 0xb3, 0xb8, 0xb0, 0xb3, 0xb3, 0xac, 0xed, 0xa1, 0xb5, 0xe6, 
0xcb, 0xb3, 0xc8, 0xc3, 0xbe, 0xb9, 0xfd, 0xb7, 0xda, 0xca, 0xf5, 0xf4, 
0xda, 0xec, 0xdc, 0x04, 0xed, 0xec, 0xd5, 0x08, 0xce, 0x0a, 0xd5, 0xf8, 
0xda, 0xed, 0xdc, 0xff, 0xf5, 0xfa, 0x05, 0xba, 0xd0, 0x05, 0xec, 0xe2, 
0x08, 0x0d, 0x00, 0x0f, 0xda, 0xe4, 0xdb, 0x0e, 0x0b, 0x11, 0xf7, 0xf0, 
0xd4, 0x0e, 0xd7, 0xfe, 0xfb, 0xca, 0xdb, 0xf2, 0xef, 0xe5, 0xef, 0xe1, 
0xd5, 0xd4, 0xe3, 0x17, 0x00, 0xda, 0x17, 0xfe, 0x0e, 0xf9, 0x05, 0x07, 
0x02, 0xbf, 0x04, 0xe7, 0xdd, 0x0c, 0xc5, 0xc3, 0xd6, 0xdc, 0x20, 0x0d, 
0x15, 0xf0, 0xf5, 0x13, 0xcb, 0x02, 0xe0, 0xd6, 0xfc, 0x12, 0xd6, 0xd7, 
0xdd, 0xe2, 0xec, 0x00, 0xe4, 0xf8, 0xfd, 0x25, 0x14, 0xd9, 0xeb, 0x01, 
0xda, 0x21, 0x2c, 0xe4, 0x04, 0xec, 0x04, 0xf1, 0xfa, 0x13, 0x11, 0xed, 
0x06, 0x21, 0x37, 0xfc, 0x2f, 0x08, 0x23, 0xfc, 0xfd, 0x3d, 0x09, 0xf6, 
0x39, 0x17, 0x07, 0x41, 0xfc, 0x12, 0x33, 0x40, 0x32, 0x25, 0x45, 0x42, 
0x1a, 0x19, 0x40, 0x33, 0x07, 0x17, 0xff, 0xff, 0x1a, 0x31, 0x2c, 0x40, 
0xfb, 0x3d, 0x20, 0xf3, 0x18, 0x2d, 0x27, 0x1c, 0x21, 0x3b, 0x36, 0x2c, 
0x42, 0x2b, 0x1d, 0x4a, 0x46, 0x11, 0x01, 0x3e, 0xef, 0x0b, 0xed, 0x23, 
0x38, 0x11, 0x3c, 0x30, 0x2b, 0x35, 0x4e, 0x04, 0x48, 0x0b, 0x3d, 0x35, 
0x3b, 0xf9, 0x30, 0x30, 0x00, 0x43, 0xfb, 0x40, 0xf8, 0xf8, 0x2c, 0x0d, 
0x01, 0x27, 0x24, 0x1e, 0x17, 0x43, 0x1b, 0x27, 0x40, 0x4a, 0x4f, 0x0b, 
0x23, 0x5d, 0x23, 0x13, 0x52, 0x2a, 0x25, 0x15, 0x27, 0x37, 0x17, 0x43, 
0x4e, 0x1e, 0x45, 0x5e, 0x5f, 0x31, 0x29, 0x39, 0x3f, 0x23, 0x47, 0x68, 
0x3f, 0x30, 0x4d, 0x73, 0x70, 0x4e, 0x76, 0x39, 0x4e, 0x60, 0x2a, 0x4a, 
0x3d, 0x7d, 0x7c, 0x2d, 0x67, 0x2e, 0x30, 0x37, 0x49, 0x3f, 0x3e, 0x69, 
0x5b, 0x72, 0x25, 0x34, 0x6a, 0x4f, 0x34, 0x5c, 0x26, 0x30, 0x77, 0x6c, 
0x45, 0x60, 0x44, 0x5f, 0x41, 0x66, 0x4a, 0x2b, 0x29, 0x49, 0x3e, 0x52, 
0xf8, 0xf4, 0xdb, 0x0f, 0xca, 0x0e, 0xee, 0xe1, 0xe8, 0xfd, 0x10, 0xc7, 
0xbb, 0xca, 0xec, 0xf4, 0xec, 0xe1, 0xf3, 0x10, 0x00, 0xe4, 0xf3, 0xda, 
0x0f, 0x07, 0xf5, 0xc1, 0x27, 0xe7, 0xc4, 0xd4, 0x02, 0xf3, 0x17, 0xc8, 
0x1a, 0xff, 0x28, 0x26, 0x08, 0x13, 0x1c, 0xf0, 0xcd, 0xfd, 0xd0, 0xe5, 
0x08, 0x1d, 0x0d, 0x0d, 0x01, 0xba, 0xce, 0xf9, 0xd0, 0xf1, 0xcb, 0xd8, 
0xcf, 0xf0, 0x24, 0x28, 0xfd, 0xea, 0x2d, 0xfc, 0x1a, 0xd4, 0x0c, 0xdf, 
0x2a, 0x01, 0xdc, 0xca, 0xd3, 0xdb, 0x29, 0xda, 0x0c, 0x06, 0xc7, 0x21, 
0xd9, 0x07, 0xc2, 0x12, 0x0c, 0xd3, 0xf9, 0xe8, 0xbe, 0xcb, 0xe4, 0xf0, 
0xeb, 0x15, 0x1c, 0xd4, 0x02, 0x06, 0x25, 0xf0, 0x01, 0x11, 0x1d, 0x1f, 
0xfd, 0x23, 0xd0, 0xe8, 0xeb, 0x09, 0xe1, 0x00, 0x14, 0xd2, 0xc8, 0x13, 
0x12, 0xdc, 0xbe, 0xeb, 0xfb, 0xc1, 0xd6, 0x19, 0xcc, 0x07, 0xd3, 0x21, 
0xd0, 0x20, 0xea, 0x0c, 0x08, 0xdc, 0x02, 0x05, 0x0b, 0x2e, 0x10, 0xe1, 
0xe1, 0xe2, 0xdb, 0xb6, 0x09, 0xe1, 0xba, 0xd6, 0x07, 0x15, 0xe4, 0xcc, 
0x13, 0x1b, 0xc3, 0xd4, 0xf3, 0xd8, 0xc2, 0x11, 0xd6, 0x07, 0xbf, 0xc8, 
0xdc, 0xca, 0xd8, 0x1f, 0xdc, 0x18, 0x18, 0xcf, 0x1f, 0x01, 0xdc, 0xec, 
0x0c, 0xfc, 0x0b, 0xcf, 0x11, 0xf0, 0x05, 0xfa, 0x1a, 0xe3, 0x1d, 0xe1, 
0x1c, 0xca, 0xe7, 0x24, 0x24, 0xc8, 0xc5, 0xfd, 0x16, 0xcf, 0xf1, 0xce, 
0xfc, 0x17, 0xe4, 0xf3, 0x07, 0xd8, 0x15, 0x01, 0xdd, 0xf2, 0x26, 0xf3, 
0xfd, 0x16, 0xe8, 0x0e, 0xce, 0xcf, 0x19, 0x13, 0x22, 0x0a, 0x2b, 0x18, 
0xd7, 0xe0, 0x14, 0x03, 0xe8, 0x1f, 0x02, 0xe1, 0xd3, 0x13, 0x2f, 0x1a, 
0x21, 0xe6, 0xee, 0x1c, 0xe1, 0x34, 0x00, 0x0c, 0xd4, 0x17, 0x2c, 0x09, 
0xde, 0xcb, 0x12, 0xc6, 0x12, 0xff, 0x06, 0x1d, 0xe9, 0x2c, 0xde, 0xde, 
0x0b, 0xf2, 0xfa, 0x33, 0x18, 0x34, 0x13, 0x0f, 0x32, 0xe4, 0x2f, 0x0c, 
0xd5, 0xda, 0x11, 0xe7, 0x2d, 0xec, 0x27, 0xd9, 0xf2, 0x0c, 0xe7, 0x34, 
0x2e, 0x40, 0x19, 0xdd, 0xff, 0x2c, 0x29, 0x0c, 0x3d, 0x1d, 0x29, 0x18, 
0x05, 0x18, 0x26, 0x18, 0xd6, 0x0e, 0xff, 0x07, 0x07, 0x36, 0x32, 0xf9, 
0xea, 0x25, 0x17, 0x05, 0xd9, 0x18, 0x2a, 0x2c, 0x24, 0xf9, 0xe2, 0xee, 
0x2b, 0xeb, 0xe4, 0xdd, 0xd6, 0xcd, 0x1f, 0x19, 0x02, 0x03, 0xe0, 0xd1, 
0xf2, 0x2f, 0xfb, 0xdc, 0x23, 0x0a, 0xdd, 0x24, 0x10, 0x0a, 0xf3, 0xde, 
0x01, 0xfd, 0x05, 0xde, 0x29, 0xf8, 0xdc, 0xee, 0x04, 0xe6, 0xe0, 0x2b, 
0xdd, 0x2c, 0xe7, 0x45, 0x29, 0x0b, 0x2c, 0xe9, 0x0a, 0x1a, 0x18, 0x17, 
0x43, 0x2c, 0x2b, 0xf9, 0x1e, 0x31, 0x56, 0x07, 0x35, 0x3c, 0x2b, 0x3e, 
0x5a, 0x12, 0x28, 0x1a, 0x4b, 0x35, 0x61, 0x49, 0x20, 0x65, 0x71, 0x28, 
0x7c, 0x7f, 0x5b, 0x47, 0xea, 0x15, 0xe9, 0x0a, 0xe1, 0x0d, 0x47, 0x3d, 
0x3a, 0xfe, 0xf4, 0xda, 0x27, 0xdd, 0x09, 0xd5, 0xe1, 0x16, 0x0c, 0xe0, 
0xff, 0xff, 0x0e, 0xfc, 0xea, 0x0b, 0xce, 0xd1, 0x37, 0xd7, 0xdf, 0xcb, 
0x00, 0x4d, 0x21, 0x13, 0xe5, 0x25, 0x2e, 0x03, 0xef, 0xd2, 0x38, 0x35, 
0x25, 0x30, 0x0e, 0x35, 0x0f, 0x2c, 0x32, 0x0e, 0x34, 0xed, 0xc3, 0xe1, 
0x02, 0x2c, 0xd0, 0xca, 0xf7, 0x18, 0xbb, 0x03, 0xc4, 0xde, 0xa9, 0xb7, 
0xc0, 0xde, 0xd8, 0xe7, 0xf3, 0xc9, 0xdd, 0xcf, 0xe5, 0x00, 0xf8, 0xe2, 
0x04, 0xa9, 0x14, 0xc4, 0xe9, 0xf8, 0x1b, 0xdb, 0xc9, 0xff, 0xeb, 0xf1, 
0xc2, 0xf3, 0x12, 0x30, 0x1b, 0xe5, 0xd5, 0xec, 0x03, 0x06, 0x13, 0x23, 
0x00, 0xd1, 0xf3, 0x2f, 0x3b, 0x08, 0x1d, 0xc7, 0x29, 0x01, 0xe4, 0x1d, 
0x2e, 0x0a, 0xdf, 0xed, 0xed, 0xca, 0x41, 0xcc, 0x23, 0x0e, 0xe7, 0x15, 
0xe8, 0x30, 0xd8, 0x1c, 0xd0, 0x00, 0xca, 0xca, 0xbf, 0x0d, 0xe4, 0xe8, 
0x1f, 0x51, 0x45, 0xfe, 0x02, 0x20, 0x29, 0xf6, 0x38, 0xec, 0xec, 0xff, 
0x27, 0xed, 0xda, 0x1e, 0x40, 0x07, 0x1f, 0xd1, 0x2c, 0x22, 0xef, 0x0f, 
0xf0, 0xf2, 0xe2, 0xda, 0x02, 0xc0, 0x01, 0xd9, 0xcf, 0xf1, 0xa2, 0xb3, 
0x04, 0xb9, 0xe1, 0x06, 0x12, 0xf8, 0xf2, 0x24, 0x25, 0x24, 0xe5, 0xfd, 
0xe3, 0xec, 0xb1, 0xff, 0x01, 0x1c, 0xfb, 0xc6, 0xc8, 0xf3, 0xda, 0xd7, 
0xcf, 0x41, 0x3f, 0x42, 0x2c, 0xfc, 0x3f, 0x46, 0x42, 0xf2, 0x11, 0x23, 
0x13, 0xe7, 0x09, 0x39, 0xf0, 0x15, 0x3b, 0x34, 0xf6, 0x49, 0x18, 0x18, 
0xe1, 0xfe, 0x30, 0x41, 0x29, 0x1d, 0xdf, 0x10, 0xe4, 0x36, 0xd9, 0xdf, 
0x2f, 0xe0, 0xd6, 0xe3, 0xea, 0x0b, 0xc3, 0xd7, 0xfc, 0x1b, 0xf8, 0xfc, 
0x17, 0x22, 0x12, 0xd8, 0x0e, 0x11, 0x1a, 0x0f, 0xa7, 0x11, 0xd9, 0xea, 
0x18, 0xde, 0xbf, 0xec, 0xb8, 0xf7, 0xd4, 0xdf, 0xc3, 0x02, 0xe9, 0xb4, 
0xae, 0xd8, 0x95, 0xef, 0x81, 0xc1, 0x8f, 0xd2, 0xa7, 0xa9, 0xb5, 0xc2, 
0xed, 0xcd, 0xce, 0x88, 0xb9, 0xa9, 0x95, 0xa7, 0xaf, 0xd4, 0xb9, 0x9d, 
0xcd, 0xa2, 0x9d, 0x16, 0xc5, 0xf4, 0xb7, 0xb1, 0xbb, 0xce, 0xdd, 0x0b, 
0xc3, 0xe2, 0xc9, 0x09, 0xfd, 0x1d, 0xc4, 0xec, 0xc5, 0xe0, 0x15, 0x04, 
0xf7, 0xe8, 0x0c, 0xe9, 0x2b, 0x29, 0x07, 0x00, 0xf7, 0xc1, 0x1e, 0xf2, 
0xa6, 0xf7, 0x0b, 0xda, 0xf7, 0xf2, 0xc2, 0xea, 0xc1, 0x03, 0x07, 0x0c, 
0xe5, 0x9d, 0xf3, 0xef, 0xec, 0x0a, 0xdb, 0x36, 0x36, 0xf3, 0xe5, 0x5d, 
0x4a, 0x06, 0x39, 0x05, 0x62, 0x34, 0x49, 0x03, 0x2e, 0x16, 0x33, 0x4f, 
0x2b, 0xef, 0x19, 0xe9, 0x38, 0xf4, 0xff, 0x15, 0xca, 0x03, 0x23, 0xc6, 
0xcf, 0xb6, 0xd4, 0x28, 0xdf, 0xdd, 0xc2, 0x0b, 0x0e, 0xcd, 0x3e, 0xfc, 
0xeb, 0xe5, 0x2b, 0x47, 0x08, 0x62, 0x21, 0x0c, 0xce, 0xa7, 0x9b, 0xd0, 
0xce, 0xb2, 0xb8, 0xc3, 0xca, 0x83, 0xa2, 0xb7, 0x81, 0xe1, 0xb9, 0xdd, 
0xca, 0xb1, 0xdb, 0xc2, 0xba, 0xa5, 0xb8, 0xb2, 0xfa, 0x0e, 0xa9, 0xc8, 
0xd7, 0xdd, 0xbb, 0xe9, 0x12, 0xe9, 0xe8, 0xc6, 0xe7, 0x01, 0xfd, 0xf3, 
0xc3, 0xc4, 0xcf, 0xc0, 0xfe, 0x11, 0x09, 0xd3, 0xc4, 0xe1, 0xf9, 0xd8, 
0xbf, 0xcb, 0x1e, 0xdb, 0xd6, 0x13, 0xed, 0xde, 0xd6, 0xd4, 0xff, 0xd4, 
0x06, 0xa9, 0xdc, 0xc5, 0x0e, 0xdb, 0xf9, 0xf7, 0xf3, 0xbf, 0xba, 0xd7, 
0x04, 0xb1, 0xc9, 0xe2, 0xea, 0xda, 0xc8, 0xbe, 0xaf, 0xde, 0x00, 0xa8, 
0xdc, 0xee, 0xaf, 0xc5, 0xcb, 0x00, 0xf6, 0xf3, 0xcd, 0xc4, 0x05, 0xa2, 
0x94, 0xe4, 0xdb, 0x98, 0x98, 0x00, 0x9d, 0xad, 0x00, 0xef, 0xfa, 0xbe, 
0xbd, 0xcd, 0xfb, 0xc5, 0x06, 0xe2, 0xee, 0xef, 0x12, 0x13, 0xba, 0x18, 
0xc5, 0xdd, 0x0a, 0x0c, 0xc8, 0x04, 0xd4, 0x1a, 0xc3, 0xe8, 0xe4, 0xc7, 
0x1a, 0xd7, 0x0a, 0x0d, 0xfe, 0xea, 0x18, 0xf5, 0xec, 0xf3, 0xdf, 0xe3, 
0xf6, 0x2d, 0xc9, 0xdc, 0xe7, 0x06, 0x16, 0x00, 0xe2, 0x17, 0xe4, 0x10, 
0xec, 0x38, 0x0d, 0xf3, 0xf5, 0xdc, 0x13, 0x2a, 0xf6, 0xe7, 0x32, 0x2a, 
0xdc, 0xfc, 0xf1, 0x2e, 0x29, 0xe7, 0x25, 0x09, 0x0b, 0x18, 0xd2, 0x11, 
0xd4, 0x1c, 0xcf, 0x1a, 0xf0, 0xe2, 0xce, 0xfc, 0xee, 0x08, 0x11, 0x0c, 
0xef, 0x1c, 0xc9, 0x31, 0xe7, 0x27, 0xdb, 0x08, 0x13, 0x09, 0xc2, 0x06, 
0x12, 0x25, 0xf4, 0xd5, 0x0a, 0xd3, 0xdd, 0x0d, 0xf4, 0x17, 0x15, 0x3d, 
0xf5, 0x0d, 0xfb, 0x32, 0xdd, 0xf4, 0xec, 0x44, 0xe8, 0x15, 0x04, 0x4d, 
0x0f, 0x1f, 0x2e, 0x20, 0x27, 0x29, 0xf2, 0x28, 0xef, 0x50, 0x4e, 0x3e, 
0xec, 0x32, 0x56, 0x36, 0x4c, 0x3b, 0x3d, 0x26, 0x39, 0x2e, 0x1b, 0x25, 
0xf5, 0x27, 0x5a, 0x45, 0x17, 0x51, 0xfc, 0x4b, 0x11, 0x2c, 0x49, 0x31, 
0xec, 0xf7, 0x37, 0x1e, 0xe9, 0x49, 0xf4, 0x43, 0xfc, 0x06, 0xf2, 0x0b, 
0x0f, 0xe4, 0xf5, 0x2b, 0x41, 0x3a, 0xea, 0xd7, 0x0b, 0xf4, 0x0d, 0xee, 
0xe6, 0x33, 0xe7, 0x1c, 0x1f, 0x45, 0x08, 0x4c, 0x15, 0xfa, 0x46, 0xf6, 
0x2d, 0x04, 0x2c, 0xf8, 0xe9, 0x42, 0x33, 0xe7, 0xf3, 0x40, 0x2c, 0x2f, 
0x33, 0xff, 0xe8, 0xdd, 0xe5, 0x31, 0xea, 0x0e, 0x45, 0x4a, 0x0d, 0xee, 
0xf1, 0x3b, 0x1f, 0x16, 0x5d, 0x13, 0x0c, 0x0c, 0x00, 0x52, 0x35, 0x48, 
0x5d, 0x5e, 0x08, 0x1f, 0x09, 0x42, 0x38, 0x1a, 0x12, 0x1e, 0x0e, 0x46, 
0x56, 0x32, 0x34, 0x08, 0x35, 0x63, 0x1c, 0x50, 0x32, 0x04, 0x54, 0x18, 
0x43, 0x08, 0x69, 0x5a, 0x4c, 0x29, 0x3b, 0x12, 0x57, 0x01, 0x23, 0x03, 
0x16, 0x44, 0x34, 0x33, 0x3d, 0x15, 0x3c, 0x4d, 0x08, 0xea, 0x2f, 0x3b, 
0x19, 0xf6, 0x26, 0x05, 0x24, 0x38, 0xd7, 0x1b, 0x05, 0x2a, 0x17, 0xfd, 
0xef, 0xae, 0x93, 0xc0, 0xd4, 0x91, 0x95, 0xd9, 0xcd, 0xd9, 0x99, 0xf8, 
0xe1, 0xf0, 0xe6, 0x01, 0x06, 0xb4, 0xca, 0x10, 0x11, 0xf3, 0xd6, 0x02, 
0xbf, 0xea, 0x14, 0xba, 0xbd, 0x18, 0xd4, 0xc4, 0xce, 0xd2, 0x0a, 0xc4, 
0xd9, 0x11, 0x0b, 0xec, 0x17, 0xe4, 0xfa, 0x43, 0x43, 0xfb, 0xde, 0x0c, 
0x15, 0xe2, 0xfe, 0xd3, 0x2f, 0x19, 0x29, 0xea, 0x22, 0x30, 0x05, 0xee, 
0xf5, 0x29, 0x1b, 0x25, 0x1a, 0x14, 0xfc, 0x1c, 0x14, 0xd0, 0xf5, 0x0c, 
0xe0, 0x0e, 0xe7, 0x13, 0x38, 0x01, 0xde, 0xe9, 0x28, 0x22, 0x18, 0xe7, 
0x0f, 0x21, 0x23, 0xe2, 0x40, 0x12, 0x0e, 0x12, 0xf8, 0x2c, 0x0c, 0xe8, 
0xe7, 0xe1, 0xe4, 0xec, 0xd6, 0x2e, 0x18, 0x2a, 0x1a, 0x36, 0xcd, 0x12, 
0x1c, 0x02, 0xec, 0xc4, 0x10, 0xd1, 0x03, 0xfa, 0xda, 0xc7, 0x25, 0xde, 
0x04, 0xc3, 0x19, 0x11, 0xe5, 0x18, 0xd6, 0xc0, 0xd7, 0xf8, 0x22, 0xd8, 
0x07, 0xbb, 0xb0, 0xf8, 0xc8, 0xbc, 0xd7, 0x0d, 0x0c, 0xbd, 0xcd, 0xcc, 
0xe8, 0xd7, 0x9b, 0xf0, 0xe8, 0xa2, 0x97, 0xb8, 0xcb, 0x91, 0xba, 0xa0, 
0xd9, 0xcb, 0x9f, 0xde, 0xe9, 0xd4, 0xe2, 0x0a, 0x0e, 0xf9, 0x0b, 0xd1, 
0xcb, 0x0f, 0xd1, 0xb6, 0xd3, 0xe2, 0xba, 0xa8, 0xab, 0xf4, 0xe6, 0xcd, 
0xf1, 0xf2, 0x01, 0xf0, 0x1e, 0xea, 0xdc, 0x0a, 0xd2, 0x0c, 0xf0, 0x0d, 
0x21, 0x19, 0x1e, 0x37, 0xfe, 0x36, 0x4a, 0x11, 0x34, 0x06, 0xf0, 0x30, 
0x41, 0xf0, 0xdd, 0xf4, 0x04, 0x0c, 0xfc, 0xf9, 0x3a, 0xf5, 0x46, 0x05, 
0x30, 0x1f, 0x05, 0x5a, 0x5a, 0x22, 0x4b, 0x41, 0x25, 0x42, 0x21, 0x14, 
0x13, 0x05, 0x37, 0x1e, 0x51, 0x3d, 0x0c, 0x09, 0x4b, 0x62, 0x18, 0x34, 
0x1c, 0xf7, 0x5f, 0x33, 0x58, 0x37, 0x4e, 0xf7, 0xef, 0x43, 0x37, 0x08, 
0x3f, 0x46, 0xe6, 0xf5, 0x05, 0xf3, 0xf2, 0x0c, 0xe4, 0x09, 0x35, 0xfc, 
0x0b, 0x31, 0x24, 0xe5, 0x06, 0xd2, 0x16, 0xeb, 0x0d, 0x05, 0xdf, 0x12, 
0xd5, 0x3f, 0x1a, 0xec, 0xe6, 0x19, 0x2d, 0xf7, 0x23, 0xed, 0xfd, 0x3b, 
0xee, 0x20, 0x39, 0x27, 0x04, 0x14, 0xea, 0xef, 0xf4, 0x2e, 0xee, 0x57, 
0x4e, 0x18, 0x10, 0x3a, 0x08, 0x04, 0xf1, 0x36, 0x1a, 0x56, 0x0a, 0x53, 
0x55, 0x1d, 0x37, 0x41, 0x5a, 0xfe, 0x37, 0xfe, 0x13, 0x49, 0x27, 0xf4, 
0x4f, 0xfc, 0x20, 0x2a, 0xf7, 0x23, 0x5f, 0x58, 0x08, 0x56, 0x1b, 0x57, 
0x4c, 0x16, 0x07, 0x62, 0x40, 0x12, 0x0b, 0x03, 0x29, 0x17, 0x04, 0xdd, 
0xf0, 0x28, 0xe8, 0xd2, 0x38, 0x26, 0xe8, 0xf0, 0x36, 0x51, 0xf3, 0x48, 
0x21, 0xff, 0x19, 0x4b, 0xff, 0x3c, 0x20, 0x46, 0x42, 0x1e, 0xf4, 0x1b, 
0x24, 0x48, 0x14, 0xf7, 0x28, 0xed, 0x39, 0x0e, 0x30, 0x00, 0x27, 0x04, 
0x1a, 0x12, 0x2f, 0x4c, 0x69, 0x16, 0x70, 0x28, 0x72, 0x7f, 0x5a, 0x2a, 
0x7f, 0x6d, 0x4b, 0x75, 0xe3, 0xd2, 0x2d, 0xc2, 0x2a, 0xf6, 0x2d, 0xaf, 
0x32, 0xf5, 0xed, 0x35, 0xf2, 0xfb, 0x0c, 0xe2, 0xf5, 0xd2, 0xfe, 0xf6, 
0xd6, 0xb1, 0xe7, 0xb4, 0xe1, 0xb7, 0xe6, 0xff, 0xc2, 0x18, 0xfa, 0xe7, 
0xcf, 0xca, 0x04, 0xf4, 0xdc, 0xca, 0x3d, 0xc5, 0x12, 0xcc, 0x3f, 0xdf, 
0xc0, 0x2f, 0x32, 0x00, 0xab, 0x13, 0xa5, 0x19, 0xb9, 0xef, 0xa6, 0x2f, 
0xc7, 0xc9, 0xcb, 0x33, 0x32, 0xe5, 0x36, 0x19, 0xf4, 0xdb, 0x01, 0x1e, 
0x00, 0xeb, 0xcb, 0x42, 0xd5, 0xf6, 0x2d, 0xc0, 0x1d, 0xd6, 0xf3, 0x21, 
0xe0, 0xf1, 0xd4, 0x29, 0xd8, 0x3c, 0xbf, 0x03, 0x26, 0xe9, 0x30, 0xd4, 
0xbc, 0xb1, 0x00, 0xbe, 0xe5, 0xc7, 0x37, 0xb9, 0x27, 0xc7, 0x1b, 0xfb, 
0x14, 0xf3, 0xd1, 0xf7, 0x21, 0x27, 0xf8, 0x28, 0xd1, 0xf8, 0xe9, 0xc5, 
0x05, 0xb8, 0xb9, 0xe4, 0xb2, 0xc8, 0x0d, 0x0c, 0xfb, 0xe3, 0x36, 0xb7, 
0xbf, 0x10, 0xee, 0x2d, 0x33, 0xcd, 0xfa, 0x2a, 0x2c, 0x41, 0xdd, 0xe7, 
0xe6, 0xdb, 0x36, 0xd9, 0x3d, 0xc0, 0xfe, 0xf7, 0xe1, 0x2f, 0xc5, 0xf0, 
0x08, 0x1a, 0xef, 0xf2, 0xc0, 0x22, 0xca, 0xab, 0x2a, 0xc0, 0x14, 0x1b, 
0x0a, 0x21, 0xb7, 0xcb, 0xc7, 0xf9, 0xc5, 0x20, 0xff, 0xb9, 0xd2, 0x2c, 
0xb3, 0xfb, 0xc5, 0xe3, 0x31, 0x2d, 0x48, 0xdc, 0xfe, 0xcc, 0x33, 0xf0, 
0x00, 0xee, 0x47, 0x31, 0x48, 0x32, 0x39, 0xe4, 0xf2, 0x11, 0x00, 0xc3, 
0x24, 0xea, 0x1d, 0x1a, 0x36, 0xc5, 0x00, 0xd5, 0x18, 0xb9, 0xed, 0xc7, 
0x2d, 0x1f, 0x2e, 0xcb, 0xca, 0xcd, 0x13, 0x2b, 0xda, 0xc6, 0xdf, 0x19, 
0x2f, 0xb4, 0xc0, 0x3d, 0x10, 0x00, 0xe7, 0x40, 0x33, 0xcf, 0xd4, 0xf2, 
0x30, 0x0a, 0x1f, 0x31, 0x24, 0x41, 0xcd, 0x1a, 0x22, 0x39, 0x31, 0x31, 
0xcb, 0xc6, 0xe8, 0x1b, 0xfc, 0xfd, 0x22, 0xcd, 0xe8, 0xe9, 0x2e, 0x01, 
0xfa, 0xcb, 0x26, 0xb9, 0xda, 0xc8, 0x24, 0xd1, 0xb2, 0xc4, 0x2c, 0xfe, 
0x02, 0xe0, 0xbc, 0xfe, 0xfe, 0x3e, 0x26, 0x38, 0x30, 0xc7, 0xe0, 0x18, 
0x40, 0x36, 0x19, 0xfa, 0x3c, 0xff, 0xfa, 0xd0, 0x12, 0x2b, 0x1c, 0x2b, 
0xfe, 0x1f, 0xce, 0x34, 0xfc, 0xf4, 0xc0, 0x27, 0x2a, 0x04, 0xc5, 0xc2, 
0xca, 0xbc, 0xdd, 0xbc, 0xf6, 0x1d, 0xcb, 0xda, 0xbf, 0xd6, 0x2f, 0x25, 
0x28, 0x20, 0x37, 0xca, 0xc2, 0x1c, 0xfe, 0x28, 0xbc, 0xb6, 0xb3, 0xb8, 
0x0a, 0xff, 0x18, 0x20, 0xe9, 0xf8, 0xd3, 0xf5, 0xc7, 0x3d, 0xd0, 0xf0, 
0xcf, 0x19, 0xde, 0xe2, 0xe3, 0xef, 0x18, 0xfb, 0x20, 0x48, 0x2d, 0x13, 
0xde, 0x48, 0xfe, 0x45, 0x2a, 0x2e, 0xe7, 0xe3, 0x3f, 0x50, 0x49, 0x30, 
0x07, 0xf3, 0x2d, 0x19, 0xea, 0xf9, 0x43, 0x40, 0x41, 0xfa, 0x0c, 0xfe, 
0xef, 0x3e, 0x23, 0x35, 0x4c, 0x7b, 0x4d, 0x7f, 0x65, 0x15, 0x3f, 0x7f, 
0x5a, 0x1d, 0x6c, 0x3a, 0x25, 0x67, 0x4c, 0x7d, 0xac, 0xeb, 0xdb, 0xc5, 
0xdc, 0xb8, 0xb3, 0xb1, 0xa3, 0xb7, 0xa3, 0xe9, 0xa6, 0xb4, 0xab, 0xc7, 
0xf0, 0xb9, 0xc3, 0xbe, 0xb9, 0xda, 0xaf, 0xd3, 0xb9, 0xee, 0xe7, 0xfb, 
0xea, 0xd3, 0xe0, 0xd1, 0xd7, 0xe8, 0xd8, 0xc9, 0xfe, 0xe1, 0xfc, 0xf1, 
0xf7, 0xed, 0xdf, 0xeb, 0xed, 0xe0, 0xde, 0xe2, 0xe5, 0xe4, 0xd4, 0x02, 
0xb6, 0xce, 0xb4, 0xfd, 0xe8, 0xdd, 0xbb, 0xcd, 0xbc, 0xe1, 0xf4, 0xc0, 
0x02, 0x09, 0xf8, 0xde, 0xf8, 0xcd, 0xf9, 0x0b, 0xc6, 0xc0, 0x01, 0x10, 
0xc1, 0xd3, 0xc3, 0xfc, 0x01, 0x0b, 0xe7, 0x00, 0xff, 0xde, 0xd0, 0x08, 
0xeb, 0xc0, 0xf2, 0xc1, 0xdf, 0xf1, 0xc9, 0xcb, 0xc8, 0xbc, 0xd9, 0x03, 
0x02, 0xc9, 0xbf, 0xed, 0xe7, 0xee, 0xfe, 0x0f, 0xc5, 0xbf, 0xd6, 0xc7, 
0xbd, 0xce, 0x11, 0xda, 0xd4, 0xc5, 0xbe, 0xcb, 0xd1, 0xd3, 0x0d, 0x0b, 
0xbe, 0xc4, 0xb8, 0xca, 0x0c, 0xfa, 0xf6, 0xf2, 0x0b, 0x10, 0xd8, 0x02, 
0xf2, 0xc4, 0xfe, 0x0b, 0xf9, 0x07, 0x14, 0x15, 0xe6, 0xbc, 0xc2, 0xf6, 
0xf6, 0xdb, 0xfb, 0xb1, 0xf1, 0xe2, 0xca, 0xec, 0xd8, 0xbb, 0x03, 0xf8, 
0xb7, 0xbc, 0xcc, 0xd6, 0x01, 0x08, 0x0d, 0xc5, 0xfd, 0xd9, 0xfe, 0xf5, 
0x05, 0xd7, 0xbf, 0xf6, 0xfa, 0xe9, 0xff, 0xed, 0xd2, 0xf2, 0x0f, 0x26, 
0xd6, 0x1e, 0xf3, 0xd8, 0x13, 0x2f, 0x22, 0x03, 0xdf, 0xfe, 0x01, 0x22, 
0x17, 0xda, 0x27, 0xe9, 0xec, 0xfc, 0x14, 0x22, 0xe0, 0x0c, 0xf5, 0x0d, 
0xe9, 0xdb, 0xe5, 0xf0, 0xe8, 0x08, 0xf8, 0x2f, 0x2c, 0x07, 0x0c, 0x2f, 
0xf8, 0x21, 0x1b, 0xf1, 0x2c, 0x1e, 0x1d, 0xff, 0xf9, 0x0f, 0xee, 0xfe, 
0x04, 0x2e, 0x22, 0xfe, 0xef, 0x1c, 0x28, 0xeb, 0x20, 0x1d, 0x28, 0x22, 
0xf6, 0x08, 0x2d, 0x22, 0xf4, 0x27, 0x05, 0x30, 0xde, 0x04, 0x18, 0xe9, 
0xdc, 0xdf, 0xfc, 0xe4, 0x0e, 0x2c, 0xeb, 0x22, 0x33, 0x1e, 0x06, 0x01, 
0x30, 0x2a, 0x1b, 0x07, 0x29, 0xec, 0x3c, 0x0e, 0xf9, 0x12, 0x25, 0xec, 
0x0d, 0x3e, 0xfd, 0x1a, 0x3f, 0x03, 0x08, 0xf1, 0x0f, 0x32, 0x08, 0x16, 
0x11, 0x30, 0x11, 0x34, 0xf8, 0x04, 0x42, 0x25, 0x35, 0x25, 0x3f, 0x1c, 
0x27, 0xf8, 0x3c, 0x2c, 0x20, 0x31, 0x17, 0x40, 0x49, 0x0a, 0x39, 0x39, 
0x4a, 0x32, 0xfd, 0x30, 0x48, 0xf5, 0x3e, 0x3e, 0x16, 0x30, 0x09, 0x28, 
0x0d, 0x1a, 0x44, 0x01, 0x3a, 0x0f, 0x41, 0x00, 0x40, 0x1b, 0x34, 0x40, 
0x21, 0x43, 0x38, 0x24, 0x12, 0x00, 0x37, 0x13, 0x2b, 0x3e, 0x02, 0x0c, 
0x03, 0x04, 0x14, 0x12, 0x31, 0x0b, 0x32, 0x3c, 0x18, 0x45, 0x41, 0x47, 
0x49, 0x11, 0x0d, 0x0b, 0x34, 0x39, 0x14, 0x54, 0x1d, 0x61, 0x14, 0x3d, 
0x19, 0x4d, 0x5f, 0x6a, 0x6a, 0x70, 0x54, 0x76, 0x69, 0x28, 0x3a, 0x3a, 
0x7f, 0x55, 0x42, 0x5d, 0x65, 0x5e, 0x30, 0x31, 0x66, 0x7c, 0x62, 0x4c, 
0xe5, 0x13, 0x02, 0xda, 0xeb, 0xdb, 0xf1, 0x0a, 0xdb, 0xfc, 0xfd, 0xf3, 
0xf2, 0xe9, 0x12, 0xd9, 0x03, 0xe6, 0xdb, 0xe7, 0xe5, 0xe3, 0xe6, 0x0c, 
0x09, 0x17, 0x14, 0xec, 0xfc, 0xf8, 0xe3, 0x0c, 0xe2, 0x12, 0xf0, 0xf1, 
0x07, 0x12, 0x03, 0xfd, 0xe9, 0x12, 0x19, 0x15, 0x0b, 0xed, 0x05, 0x17, 
0x07, 0x15, 0x22, 0x05, 0x1e, 0x0b, 0x21, 0xf7, 0xfc, 0x14, 0x00, 0x0f, 
0x19, 0x11, 0x14, 0x04, 0xf9, 0xf3, 0xe4, 0x12, 0x07, 0xf2, 0x0b, 0xf9, 
0xf7, 0x12, 0x00, 0xe2, 0x0e, 0x14, 0xfd, 0x15, 0xff, 0x02, 0xe7, 0xec, 
0xf2, 0x1b, 0x13, 0x18, 0xfb, 0x0a, 0xed, 0xe5, 0x1e, 0xff, 0x02, 0x0b, 
0x03, 0x11, 0xfb, 0x14, 0xf9, 0x03, 0xdc, 0xe4, 0xdf, 0xe4, 0xf8, 0x10, 
0x12, 0xf8, 0x06, 0xe6, 0xfc, 0x00, 0xfa, 0xf7, 0x07, 0xdf, 0x05, 0xf5, 
0x0a, 0xe7, 0xfc, 0x11, 0x0f, 0xea, 0x0f, 0x00, 0x14, 0x17, 0xe5, 0x19, 
0xed, 0x0e, 0x18, 0x03, 0xf7, 0x0d, 0x15, 0x15, 0xe2, 0x05, 0xff, 0x0f, 
0x13, 0x0f, 0xeb, 0xf1, 0x08, 0x08, 0x02, 0x0d, 0x00, 0xe8, 0x1b, 0x1b, 
0x09, 0x08, 0xea, 0x00, 0x1b, 0xfa, 0xea, 0xfa, 0xf2, 0x25, 0x06, 0x16, 
0x0c, 0xfb, 0xf6, 0x1f, 0x0e, 0x00, 0xf8, 0x1d, 0xf6, 0xe6, 0x17, 0xf9, 
0xfc, 0x10, 0xfa, 0xf4, 0x08, 0x07, 0x17, 0xed, 0x0a, 0x14, 0x13, 0x06, 
0x10, 0xfe, 0x00, 0xf6, 0x0a, 0x09, 0xec, 0x11, 0x13, 0x09, 0xf6, 0x09, 
0xe3, 0xda, 0x0f, 0x0c, 0xf6, 0x06, 0xe0, 0xd8, 0xfb, 0xfb, 0xde, 0xf9, 
0xe0, 0x05, 0x03, 0xef, 0xee, 0xf1, 0xee, 0xea, 0xf3, 0x0f, 0x06, 0x11, 
0x09, 0xee, 0x08, 0x0a, 0xf9, 0xf7, 0x0e, 0x12, 0x14, 0x07, 0xf3, 0xe8, 
0x02, 0xec, 0x16, 0x12, 0x20, 0xf8, 0x09, 0xe9, 0xf5, 0xfd, 0x14, 0x0d, 
0xec, 0x12, 0x02, 0x08, 0xfe, 0x23, 0xfe, 0x02, 0x29, 0x08, 0xfe, 0x08, 
0x10, 0xf1, 0xf2, 0xff, 0x1f, 0x16, 0xfd, 0x0f, 0x0e, 0x04, 0xf2, 0xfa, 
0x13, 0xfc, 0xf0, 0xe2, 0xf5, 0xe1, 0xec, 0xde, 0xf4, 0x0a, 0xea, 0xf0, 
0xfc, 0xde, 0xe0, 0x02, 0x00, 0x0f, 0xe5, 0xef, 0x11, 0x0d, 0x05, 0xff, 
0x03, 0x16, 0xe1, 0xec, 0xf3, 0x07, 0x10, 0xe1, 0x12, 0x17, 0xff, 0x09, 
0x0f, 0xfa, 0xe3, 0x05, 0xf9, 0xde, 0xf0, 0xe8, 0xdc, 0xf7, 0xf1, 0xed, 
0xe4, 0x08, 0xfe, 0xef, 0x09, 0x13, 0xff, 0xfc, 0x00, 0x0a, 0x02, 0x00, 
0xf8, 0xf0, 0xe7, 0x10, 0x00, 0xf9, 0x0e, 0xef, 0x10, 0xeb, 0x19, 0x01, 
0x20, 0xf2, 0xeb, 0xfa, 0x0f, 0x09, 0x0e, 0xe3, 0xfe, 0x14, 0x05, 0x0e, 
0xfc, 0xf4, 0x08, 0xfe, 0x0e, 0x18, 0x19, 0xed, 0xed, 0x02, 0x03, 0xf6, 
0xf1, 0xee, 0x01, 0x09, 0x1c, 0x01, 0xff, 0x02, 0x11, 0xfa, 0xe8, 0x09, 
0xda, 0xce, 0x01, 0xc8, 0xc5, 0xe7, 0xe1, 0xa6, 0xa9, 0xad, 0x9d, 0xae, 
0xa8, 0x9e, 0x88, 0x81, 0xe9, 0xdf, 0xef, 0x3e, 0x44, 0x4c, 0xf2, 0x46, 
0x23, 0x16, 0xe5, 0x3e, 0x24, 0x4c, 0x0f, 0x16, 0x10, 0x12, 0x45, 0x18, 
0x09, 0xfb, 0x4a, 0x36, 0x11, 0xe5, 0x4e, 0x2e, 0x03, 0x33, 0x02, 0x10, 
0xfc, 0x27, 0xfd, 0x3a, 0x02, 0xda, 0x06, 0x31, 0x0c, 0xf6, 0x1e, 0xc6, 
0xf5, 0xe0, 0xe4, 0x39, 0xe8, 0xe4, 0xf5, 0xff, 0xf9, 0x26, 0xf9, 0x16, 
0x19, 0x11, 0x1c, 0xeb, 0xef, 0x35, 0xf4, 0xd3, 0xfa, 0x1e, 0xea, 0xe5, 
0x20, 0xfd, 0xd2, 0xfa, 0x3e, 0x38, 0x3d, 0xd9, 0xe9, 0xdf, 0x31, 0x34, 
0xd6, 0x0b, 0x07, 0x3e, 0xe9, 0x33, 0x10, 0xe6, 0x31, 0x1e, 0x2b, 0x13, 
0xdc, 0xd2, 0x1f, 0x40, 0x30, 0x08, 0x1a, 0x1b, 0x22, 0xd7, 0x2d, 0x0c, 
0x0d, 0xd1, 0xd6, 0x0f, 0x08, 0x49, 0xf0, 0xf6, 0x1d, 0xe2, 0xfb, 0x4f, 
0x09, 0x44, 0xf6, 0x2f, 0xf5, 0xf8, 0x15, 0x15, 0x29, 0x28, 0x33, 0x00, 
0x16, 0x49, 0x4c, 0x17, 0x26, 0x04, 0x1f, 0x49, 0xfc, 0x04, 0x45, 0x4f, 
0x1d, 0x53, 0x3d, 0x47, 0x29, 0x0a, 0x3f, 0x6f, 0x2d, 0x33, 0x51, 0x58, 
0x63, 0x51, 0x78, 0x5f, 0x66, 0x78, 0x59, 0x7f, 0x30, 0x7e, 0x24, 0x66, 
0x36, 0x44, 0x26, 0x39, 0x19, 0x48, 0x4a, 0x06, 0x6f, 0x3f, 0x74, 0x2d, 
0x28, 0x4a, 0x1f, 0x4d, 0x33, 0x3c, 0x1c, 0x19, 0x2a, 0x53, 0x1c, 0xec, 
0xeb, 0x4c, 0x15, 0x3f, 0xfa, 0x2b, 0x2b, 0x07, 0x07, 0x08, 0x20, 0x05, 
0xf9, 0x52, 0xe8, 0xef, 0x26, 0x01, 0x10, 0x25, 0x3c, 0x43, 0x27, 0x3c, 
0xfe, 0x12, 0xe3, 0x14, 0xe0, 0xe2, 0x21, 0x3c, 0x10, 0x18, 0xf7, 0x0f, 
0x0e, 0x2f, 0x34, 0xf5, 0x37, 0x4e, 0x34, 0x3c, 0x09, 0xfc, 0x34, 0xff, 
0xf2, 0xe9, 0x1c, 0xfc, 0x09, 0xe6, 0x35, 0x0c, 0x49, 0xfa, 0x05, 0x2e, 
0x51, 0x3a, 0xf8, 0x58, 0x58, 0x00, 0x4d, 0x1b, 0x36, 0x67, 0x34, 0x49, 
0x60, 0x50, 0x2e, 0x3d, 0x51, 0x09, 0x58, 0x21, 0x4f, 0x45, 0x0c, 0x01, 
0x29, 0x17, 0x4c, 0x12, 0x3a, 0x10, 0x15, 0x35, 0x11, 0xfe, 0x42, 0x27, 
0x4d, 0x3f, 0x2f, 0x2c, 0x56, 0x36, 0x20, 0x30, 0x05, 0x4d, 0xfc, 0x01, 
0x58, 0x3e, 0xf8, 0x5a, 0x41, 0x24, 0x0e, 0x4c, 0x22, 0x27, 0x1a, 0x11, 
0x3f, 0xf2, 0xf0, 0x31, 0x50, 0xed, 0x0e, 0xf3, 0x41, 0x1d, 0x26, 0x3c, 
0xf1, 0x5b, 0x4f, 0x10, 0x23, 0x32, 0x44, 0x4b, 0x26, 0x37, 0x2b, 0x4d, 
0x2d, 0x3f, 0x16, 0x21, 0x25, 0x40, 0xfd, 0xf6, 0x45, 0x2f, 0x4a, 0xee, 
0x08, 0xfb, 0x11, 0x56, 0x41, 0x29, 0x0b, 0x04, 0x08, 0x01, 0x42, 0x0e, 
0x26, 0xf3, 0x25, 0x4f, 0x05, 0x19, 0x19, 0x2e, 0x1d, 0x04, 0x59, 0xfe, 
0x43, 0x04, 0x41, 0x45, 0x50, 0x22, 0x0d, 0xef, 0xf4, 0x02, 0x1c, 0x35, 
0xf7, 0x42, 0xf6, 0x1d, 0x38, 0xfe, 0xcc, 0x29, 0x05, 0xc0, 0xe4, 0xc4, 
0xdb, 0xb6, 0x12, 0xbb, 0x00, 0x20, 0xc9, 0xb7, 0xc2, 0x12, 0xc8, 0xd8, 
0x1a, 0xc1, 0xe4, 0x18, 0xcf, 0xe0, 0xe5, 0xd3, 0xce, 0xc9, 0x02, 0x09, 
0xc7, 0xd4, 0xda, 0xe1, 0xe2, 0xc5, 0xd2, 0x24, 0x05, 0xca, 0xc9, 0xcc, 
0xee, 0x04, 0x02, 0xd6, 0xd3, 0x29, 0xfe, 0xda, 0x2c, 0xd4, 0xf0, 0xe6, 
0x14, 0x1c, 0x33, 0x10, 0xfe, 0xe3, 0x1b, 0x11, 0xeb, 0xcb, 0x13, 0xff, 
0xee, 0x22, 0x19, 0x1a, 0xda, 0xda, 0x16, 0xd1, 0xd2, 0x0d, 0xe4, 0xe1, 
0xda, 0x02, 0x31, 0xc9, 0x02, 0xea, 0x36, 0x18, 0x00, 0xf2, 0x0b, 0xfe, 
0x3b, 0xda, 0x1a, 0xfd, 0xe4, 0xec, 0x0c, 0xd0, 0xe9, 0xfd, 0xf2, 0x10, 
0xd2, 0xf5, 0xee, 0x1e, 0xf9, 0x26, 0x2c, 0x34, 0xcd, 0x1d, 0xf9, 0x2c, 
0xdb, 0xe3, 0x30, 0xd3, 0xd9, 0x25, 0xf5, 0xf2, 0xd1, 0x39, 0xfd, 0xe6, 
0x06, 0x19, 0xdc, 0xda, 0xc9, 0x36, 0xea, 0x31, 0xda, 0x14, 0xdd, 0xc9, 
0xf3, 0xca, 0xf8, 0xda, 0x35, 0x2b, 0xcf, 0xda, 0xe7, 0x07, 0xd2, 0x3c, 
0x1a, 0x0d, 0x1f, 0xea, 0xea, 0xe0, 0x32, 0x29, 0xd4, 0x26, 0xfa, 0xe0, 
0x0d, 0x2b, 0xc9, 0xd9, 0x0d, 0x13, 0xe5, 0x04, 0xe6, 0xcb, 0x2d, 0x26, 
0xf2, 0xf3, 0x2a, 0xc9, 0xe8, 0x1f, 0x14, 0xca, 0xeb, 0x0a, 0x12, 0x10, 
0xe1, 0x0e, 0x0d, 0xdb, 0xe3, 0xca, 0x10, 0x1d, 0x2a, 0x08, 0x3a, 0x3a, 
0x25, 0xf1, 0x31, 0xeb, 0x4a, 0x46, 0x41, 0x0f, 0xea, 0x41, 0x2a, 0xf9, 
0x21, 0x23, 0x15, 0x07, 0x24, 0x2d, 0xf3, 0xf5, 0x21, 0x0c, 0xda, 0xf7, 
0xfc, 0xea, 0xdd, 0xf2, 0x0c, 0xf0, 0x2f, 0xeb, 0x14, 0x20, 0x3a, 0xfa, 
0x1f, 0x31, 0x01, 0xe4, 0x22, 0xf4, 0x3d, 0xf8, 0xf4, 0x1f, 0xf2, 0xe9, 
0x0c, 0x3c, 0xfe, 0xe4, 0x16, 0x44, 0x2c, 0x1a, 0x03, 0xe8, 0x00, 0x00, 
0xfe, 0x35, 0x2a, 0xfe, 0xca, 0xff, 0x01, 0xf1, 0x07, 0xca, 0xc6, 0xd6, 
0x2f, 0xce, 0x2d, 0xe8, 0xe8, 0xd1, 0x1a, 0xfe, 0xf9, 0x32, 0x33, 0x1a, 
0xe6, 0xf2, 0xd1, 0xec, 0xfb, 0x31, 0xec, 0xfc, 0xef, 0x33, 0xd6, 0x13, 
0x29, 0x0d, 0x36, 0xd7, 0xdd, 0x06, 0x11, 0x26, 0x3e, 0x02, 0x1a, 0xe1, 
0xef, 0x34, 0xd8, 0xf3, 0x27, 0xf1, 0x23, 0x28, 0xde, 0x38, 0xdc, 0xf9, 
0x3e, 0x35, 0x33, 0xed, 0x3b, 0x35, 0x1e, 0x2b, 0xd2, 0xd4, 0x20, 0x03, 
0xe8, 0xce, 0xf1, 0x20, 0xe9, 0x36, 0xe2, 0xd8, 0x24, 0x00, 0xd9, 0x0c, 
0x12, 0x25, 0x2d, 0xf7, 0x21, 0x32, 0xfb, 0xd6, 0xe4, 0xfe, 0xdf, 0xe4, 
0xd1, 0x0b, 0x16, 0x13, 0xcf, 0xe1, 0x0c, 0xf6, 0x14, 0x1c, 0x3a, 0x35, 
0x23, 0x0b, 0x15, 0x14, 0x23, 0x28, 0xf1, 0xe7, 0xf8, 0xea, 0x0a, 0x1a, 
0xe3, 0xf5, 0x1a, 0x14, 0x33, 0xdb, 0x07, 0x22, 0x05, 0xf4, 0x2d, 0x38, 
0xfb, 0x04, 0x00, 0xf0, 0x01, 0x45, 0x2f, 0x48, 0x66, 0x1f, 0x12, 0x15, 
0x1b, 0x37, 0x55, 0x18, 0x17, 0x26, 0x49, 0x2f, 0x19, 0x50, 0x1f, 0x7f, 
0xc2, 0xc1, 0xe1, 0xfb, 0x0e, 0x00, 0xd1, 0xd3, 0x19, 0xdf, 0x1a, 0x0e, 
0xda, 0x25, 0xe4, 0xf4, 0xd8, 0xe7, 0xc8, 0x27, 0x27, 0xcb, 0xeb, 0xcf, 
0x24, 0xda, 0xd9, 0x18, 0xe2, 0x13, 0x33, 0xcf, 0x27, 0xce, 0x14, 0xce, 
0x0b, 0x17, 0xf1, 0xe0, 0xdc, 0x05, 0x34, 0xf8, 0xf4, 0x0a, 0xd9, 0xda, 
0xf8, 0xe5, 0x27, 0xc7, 0x0e, 0xe5, 0xc2, 0x10, 0x18, 0xee, 0xfa, 0x24, 
0xf7, 0x1d, 0xf9, 0xf6, 0x06, 0x09, 0xe2, 0xe6, 0xe1, 0xe1, 0x1b, 0xcd, 
0x2d, 0xe8, 0xf8, 0x06, 0xdd, 0xcf, 0xe7, 0x0d, 0x25, 0x1e, 0xca, 0xeb, 
0x0a, 0xc7, 0xc6, 0xee, 0x25, 0xd0, 0x10, 0x17, 0x10, 0xc6, 0x28, 0xcb, 
0x19, 0xeb, 0x21, 0xca, 0xf7, 0xcb, 0xed, 0xd8, 0xe6, 0x16, 0xd1, 0x06, 
0x2a, 0xd6, 0xdf, 0x06, 0x11, 0x0d, 0x06, 0x1e, 0x12, 0xd5, 0x21, 0xe2, 
0xfd, 0xf6, 0xe1, 0x1f, 0xe5, 0x2c, 0xe4, 0xe4, 0xe7, 0x21, 0x26, 0xdc, 
0xf3, 0xfc, 0x1f, 0xd6, 0x36, 0x36, 0x18, 0x03, 0xf4, 0x15, 0x1e, 0x36, 
0xea, 0x20, 0x07, 0xd6, 0x06, 0xe6, 0x24, 0xcc, 0xe5, 0xdd, 0xc9, 0x01, 
0xd2, 0x13, 0xf2, 0xfe, 0x0c, 0xc5, 0x23, 0xc7, 0xe3, 0x1d, 0xc7, 0x17, 
0x10, 0xd0, 0x0a, 0xc7, 0xec, 0xc9, 0xe6, 0x11, 0x18, 0x02, 0xf6, 0x23, 
0xcf, 0xf4, 0x1e, 0xe9, 0x07, 0x25, 0xec, 0x33, 0xf7, 0x2a, 0xf4, 0xe7, 
0xd2, 0x10, 0xdf, 0x02, 0xfd, 0xf5, 0xe8, 0x32, 0xcf, 0x05, 0x32, 0x2c, 
0x29, 0x16, 0x13, 0x36, 0xd6, 0x37, 0xec, 0xf9, 0x07, 0xde, 0x23, 0xd3, 
0x39, 0xe2, 0xd3, 0x27, 0xcf, 0xea, 0xe4, 0x05, 0x1a, 0x38, 0x17, 0xfe, 
0xe1, 0x1e, 0x14, 0x14, 0xda, 0x07, 0x2c, 0x3f, 0x03, 0xe7, 0x06, 0xe2, 
0x33, 0xf5, 0x04, 0x05, 0xf9, 0x3c, 0x12, 0x32, 0xe9, 0xd5, 0xd9, 0xd8, 
0xf2, 0xdf, 0x36, 0xff, 0x15, 0xd8, 0xf1, 0x04, 0xef, 0x09, 0x02, 0xdf, 
0x15, 0xcc, 0xff, 0x17, 0xed, 0x12, 0x33, 0x08, 0x10, 0xe1, 0x03, 0xf7, 
0x21, 0x39, 0x35, 0xfe, 0x1c, 0x1c, 0x2e, 0xf0, 0xf6, 0x3d, 0xe5, 0xdb, 
0x14, 0x3d, 0x19, 0x44, 0x23, 0xef, 0x30, 0x25, 0x32, 0x03, 0x39, 0xd4, 
0x09, 0xeb, 0x1f, 0xd2, 0xee, 0xd5, 0x37, 0x0d, 0xf8, 0xec, 0xfc, 0x2b, 
0x04, 0xef, 0x0c, 0x22, 0x0b, 0x36, 0x0a, 0x00, 0xd5, 0x27, 0xd1, 0x1a, 
0x25, 0x30, 0x05, 0xcb, 0x0c, 0x14, 0x24, 0xf4, 0x05, 0x2c, 0x0f, 0xf3, 
0x25, 0xcc, 0xe1, 0x1d, 0xe7, 0xe7, 0xd8, 0x0f, 0x05, 0xff, 0xd9, 0xf0, 
0xf3, 0x1d, 0x19, 0xd3, 0x0e, 0x12, 0x0f, 0x38, 0x34, 0x17, 0xee, 0xf0, 
0x34, 0x21, 0x3a, 0x32, 0x48, 0x41, 0x01, 0x31, 0x19, 0x20, 0x1c, 0x1f, 
0x27, 0xe2, 0x4c, 0xf7, 0x34, 0x36, 0x3c, 0x0e, 0x4f, 0x2b, 0x4c, 0x2a, 
0x47, 0x2c, 0x12, 0x4c, 0x4a, 0x2a, 0x4e, 0x23, 0x1e, 0x28, 0x79, 0x7f, 
0x5b, 0x75, 0x24, 0x61, 0x4a, 0xfb, 0xff, 0xff, 0x04, 0x00, 0x00, 0x00, 
0x00, 0x04, 0x00, 0x00, 0x2e, 0x77, 0x6e, 0x3d, 0x41, 0x5d, 0x4f, 0xbe, 
0x73, 0x47, 0xb6, 0xbe, 0x30, 0x96, 0xec, 0x3e, 0x16, 0x79, 0x00, 0x3f, 
0xa6, 0xc2, 0x19, 0x3f, 0xef, 0xca, 0x9b, 0xbd, 0x82, 0x4f, 0xdd, 0x3e, 
0x12, 0x1e, 0x94, 0xbe, 0xdf, 0xa2, 0xcd, 0x3e, 0x28, 0xa9, 0x1a, 0xbf, 
0xb1, 0x4b, 0x0e, 0xbd, 0xc9, 0x61, 0xe0, 0xbe, 0xbb, 0x06, 0x2a, 0x3e, 
0xc6, 0x85, 0xe1, 0xbe, 0x68, 0x3e, 0x1a, 0xbd, 0xdd, 0x31, 0x62, 0xbe, 
0x23, 0xd0, 0xbb, 0x3e, 0x27, 0x88, 0x44, 0xbd, 0x13, 0x7e, 0xa3, 0xbd, 
0xcb, 0xcd, 0x31, 0xbe, 0xf3, 0x93, 0x69, 0xbd, 0x94, 0x4d, 0x49, 0x3e, 
0xb4, 0x88, 0x05, 0x3f, 0xe5, 0xff, 0x9e, 0xbe, 0x6c, 0x44, 0x8f, 0xbe, 
0xc1, 0x48, 0x46, 0x3f, 0x2b, 0x18, 0x29, 0x3f, 0x42, 0x8f, 0xe3, 0x3c, 
0x91, 0x90, 0x7d, 0xbe, 0x71, 0xdd, 0xac, 0x3e, 0xee, 0x90, 0x9b, 0x3e, 
0x59, 0x83, 0x11, 0x3e, 0x20, 0x23, 0x65, 0xbe, 0x10, 0x1a, 0x5e, 0x3e, 
0x2c, 0x76, 0xe9, 0xbd, 0x47, 0x69, 0x45, 0xbf, 0x1d, 0xc7, 0xe8, 0xbd, 
0xa1, 0xa6, 0x5d, 0x3e, 0x2d, 0xff, 0xb6, 0x3e, 0x30, 0x58, 0x2c, 0x3d, 
0xec, 0xe7, 0xac, 0x3e, 0x37, 0x08, 0x82, 0x3e, 0xb2, 0xe4, 0x83, 0x3e, 
0x46, 0x03, 0x60, 0x3e, 0xfe, 0xa9, 0x75, 0xbe, 0x08, 0x60, 0x07, 0xbf, 
0x1d, 0x66, 0xc9, 0xbe, 0x77, 0xf2, 0x25, 0xbf, 0xc1, 0x31, 0x6c, 0xbe, 
0x23, 0xec, 0x28, 0x3e, 0xc1, 0xe9, 0xc7, 0xbe, 0xaa, 0x6b, 0x6b, 0xbe, 
0x59, 0x8d, 0x81, 0xbe, 0xd2, 0x53, 0xd0, 0x3e, 0xc7, 0x96, 0x2e, 0x3e, 
0x63, 0x5b, 0x5f, 0x3e, 0xa5, 0x12, 0x3f, 0xbe, 0xb5, 0x85, 0x3c, 0x3f, 
0x4d, 0xfb, 0x05, 0x3e, 0x98, 0x52, 0x67, 0x3e, 0x7a, 0x82, 0x65, 0xbd, 
0xf7, 0xb5, 0x99, 0xbd, 0xfd, 0x4a, 0xe5, 0xbe, 0x4e, 0x19, 0x72, 0x3e, 
0x89, 0x51, 0xb8, 0x3e, 0xd6, 0x4c, 0x8b, 0xbe, 0x11, 0x40, 0x0e, 0x3f, 
0x69, 0x04, 0x95, 0xbe, 0xb9, 0x7d, 0xcd, 0x3d, 0x19, 0x5b, 0x8d, 0x3d, 
0xe7, 0x1b, 0xb0, 0xbe, 0xe1, 0x89, 0xbe, 0x3b, 0x02, 0xc4, 0x83, 0xbe, 
0xf6, 0x07, 0x5d, 0x3f, 0xed, 0xf8, 0xdf, 0x3e, 0xd6, 0x3d, 0x9d, 0x3d, 
0xc1, 0x71, 0x5b, 0x3e, 0xad, 0x21, 0x3f, 0x3f, 0x8f, 0x7a, 0x22, 0x3f, 
0x8b, 0xc4, 0x34, 0xbf, 0x0f, 0x12, 0xae, 0x3e, 0xd4, 0x66, 0x07, 0x3e, 
0x8e, 0x4a, 0x04, 0x3f, 0x66, 0xf6, 0xd4, 0xbe, 0xf2, 0x85, 0x27, 0xbf, 
0x0a, 0x73, 0xcb, 0x3e, 0xe2, 0x4e, 0xf6, 0xbe, 0x78, 0x78, 0xc5, 0xbe, 
0x39, 0xce, 0x0f, 0x3e, 0xff, 0x13, 0x1e, 0x3f, 0xe3, 0x18, 0xb7, 0x3e, 
0x03, 0xd9, 0x6f, 0x3d, 0x8b, 0x41, 0xcc, 0x3d, 0x6a, 0x86, 0x69, 0x3e, 
0x2a, 0x71, 0x09, 0x3f, 0xf8, 0x02, 0x6f, 0xbd, 0x54, 0xf3, 0x84, 0x3e, 
0xfd, 0xb4, 0x75, 0x3e, 0xd6, 0xcd, 0xa9, 0x3e, 0x5c, 0x48, 0x1c, 0xbf, 
0x8a, 0x5f, 0x0e, 0xbe, 0x5e, 0x3f, 0x1c, 0x3f, 0x58, 0x7d, 0x4c, 0xbf, 
0xf5, 0xe3, 0xca, 0xbe, 0xfe, 0xeb, 0x32, 0x3d, 0x06, 0x0b, 0x58, 0xbc, 
0xdd, 0x15, 0x1a, 0xbf, 0x94, 0x95, 0x89, 0x3e, 0xfa, 0xd5, 0xca, 0xbe, 
0x72, 0x3d, 0x09, 0x3f, 0xb0, 0x0c, 0x7d, 0xbd, 0x75, 0x5e, 0x7a, 0xbe, 
0xe2, 0x6e, 0x1e, 0xbe, 0x8d, 0x78, 0x73, 0xbe, 0xf1, 0x86, 0x96, 0xbd, 
0xbd, 0x2e, 0xb9, 0x3c, 0xcf, 0x9e, 0x12, 0x3e, 0xb0, 0xbe, 0x67, 0x3e, 
0xdb, 0x9e, 0x2b, 0xbe, 0xd8, 0xb0, 0x84, 0xbe, 0xf9, 0x11, 0x9e, 0xbe, 
0x08, 0x7e, 0x44, 0xbd, 0xcd, 0xb2, 0x57, 0xbd, 0x49, 0x73, 0xaa, 0xbd, 
0xc0, 0xdc, 0xb9, 0xbc, 0xc7, 0x2d, 0x21, 0xbe, 0x18, 0xea, 0xa6, 0xbc, 
0x16, 0x2d, 0x6d, 0xbf, 0xa7, 0x01, 0xe7, 0x3e, 0x70, 0x15, 0xe2, 0x3e, 
0x84, 0xa5, 0xea, 0x3e, 0x0b, 0x54, 0xa8, 0xbe, 0x81, 0xd4, 0xa0, 0xbf, 
0x2f, 0x47, 0x08, 0xbe, 0xce, 0xe4, 0xf9, 0xbd, 0x8e, 0x57, 0xa2, 0xbf, 
0xdb, 0x2e, 0x65, 0x3e, 0xd8, 0x0b, 0x96, 0x3e, 0x3c, 0x0d, 0xe8, 0x3e, 
0xcb, 0xf2, 0x30, 0xbf, 0xee, 0xef, 0xdf, 0xbd, 0x28, 0x93, 0x30, 0x3f, 
0xc9, 0x5b, 0x92, 0x3e, 0xa4, 0x36, 0x2e, 0xbe, 0x60, 0xc4, 0xfe, 0xbd, 
0xb7, 0x91, 0x07, 0x3f, 0x20, 0xce, 0xc2, 0x3e, 0xb8, 0xd3, 0x0e, 0xbe, 
0xe9, 0x03, 0xa8, 0x3c, 0x20, 0x6e, 0x7b, 0x3e, 0xee, 0x9a, 0xf7, 0x3e, 
0xb4, 0x26, 0xb2, 0xbd, 0xfe, 0x57, 0x73, 0xbd, 0x58, 0xf5, 0xed, 0x3e, 
0x72, 0x50, 0x53, 0xbe, 0x9c, 0xde, 0xaf, 0xbd, 0x99, 0x24, 0xbc, 0xbe, 
0xbb, 0x1a, 0xc0, 0x3e, 0x90, 0x6a, 0xd2, 0x3e, 0x2d, 0x81, 0xfb, 0xbe, 
0x31, 0x67, 0xd7, 0x3e, 0x8c, 0x2f, 0xad, 0x3e, 0xcf, 0xd0, 0x01, 0x3e, 
0x63, 0xef, 0xd8, 0x3d, 0x4f, 0x10, 0x63, 0xbf, 0xa8, 0x16, 0xb8, 0x3e, 
0x7a, 0x50, 0x88, 0x3e, 0x9f, 0x82, 0x2a, 0xbf, 0xac, 0xd9, 0x67, 0x3e, 
0xb6, 0xf9, 0x10, 0x3f, 0x34, 0xc0, 0xd8, 0x3e, 0x2d, 0xe5, 0x23, 0xbf, 
0xeb, 0xf6, 0x3d, 0x3e, 0x0e, 0x2c, 0xe5, 0x3e, 0x1a, 0xdb, 0x17, 0x3d, 
0x7e, 0xb0, 0xab, 0xbe, 0xcc, 0x54, 0xa8, 0x3d, 0x16, 0x4a, 0xbc, 0x3d, 
0x42, 0x32, 0xf6, 0x3d, 0x68, 0x14, 0xfd, 0xbe, 0x05, 0x80, 0x53, 0x3e, 
0x14, 0x57, 0x58, 0x3d, 0xc3, 0x96, 0x59, 0x3e, 0xe5, 0x6a, 0xe2, 0xbd, 
0xeb, 0xbb, 0x18, 0xbe, 0xba, 0xa2, 0x23, 0x3f, 0x1d, 0xf2, 0x0f, 0xbf, 
0x52, 0x26, 0xc3, 0xbd, 0x68, 0xf3, 0x5d, 0x3e, 0x33, 0x51, 0x89, 0x3e, 
0x58, 0x47, 0x78, 0xbe, 0xff, 0x1f, 0x38, 0xbf, 0x61, 0x8c, 0xf5, 0x3e, 
0xc0, 0x32, 0xee, 0x3e, 0xe6, 0x9c, 0xc9, 0x3d, 0x40, 0xd7, 0x2c, 0x3d, 
0xb6, 0xdd, 0x9a, 0xbe, 0x44, 0x18, 0xd4, 0x3e, 0x43, 0xcd, 0x46, 0xbe, 
0x63, 0x23, 0x3b, 0xbf, 0x11, 0xa7, 0xc9, 0xbc, 0x05, 0xf2, 0x2a, 0x3f, 
0x93, 0x29, 0xf5, 0x3e, 0x6f, 0x08, 0x0c, 0xbe, 0x95, 0xa3, 0x25, 0xbd, 
0x3a, 0x56, 0xe3, 0x3e, 0x02, 0x17, 0xee, 0x3e, 0x84, 0x91, 0x6d, 0xbe, 
0xcb, 0x32, 0xdc, 0x3e, 0xc4, 0x9d, 0x73, 0x3e, 0x9c, 0x4d, 0xa6, 0xbe, 
0xa8, 0xa6, 0xc2, 0xbe, 0xfb, 0x65, 0xf6, 0xbc, 0x19, 0x79, 0x31, 0xbf, 
0x4a, 0x9d, 0xfa, 0x3d, 0x5e, 0xa8, 0x8d, 0x3c, 0x4c, 0x5c, 0x86, 0xbe, 
0xdc, 0x54, 0x56, 0x3e, 0xce, 0x70, 0x2d, 0xbf, 0xc5, 0x09, 0x3f, 0x3c, 
0xb1, 0x25, 0x77, 0x3d, 0xc3, 0x7b, 0x76, 0xbd, 0xc2, 0x90, 0x65, 0x3e, 
0x76, 0x3e, 0x92, 0x3e, 0x78, 0x25, 0xa1, 0x3e, 0x02, 0xdf, 0x7e, 0xbd, 
0x84, 0xb0, 0x0b, 0x3d, 0x87, 0xf4, 0xb9, 0x3e, 0x14, 0x26, 0x22, 0x3f, 
0x24, 0x11, 0x87, 0xbe, 0xfc, 0x0a, 0x59, 0x3e, 0x0a, 0x9f, 0xbb, 0x3e, 
0xf4, 0xfe, 0xe7, 0xbd, 0x79, 0x65, 0xe1, 0xbe, 0xbc, 0x04, 0xa4, 0x3d, 
0x31, 0x4c, 0x91, 0x3e, 0x0f, 0x85, 0x03, 0xbc, 0xa5, 0x71, 0xb2, 0xbe, 
0xff, 0xcc, 0xee, 0x3d, 0xc5, 0x1b, 0x9d, 0x3c, 0x67, 0x1e, 0xb9, 0x3e, 
0x8e, 0xb2, 0xc1, 0x3e, 0xa5, 0x6e, 0xe8, 0xbe, 0xd0, 0x55, 0x68, 0x3c, 
0x8b, 0x60, 0xe6, 0x3e, 0x9e, 0x9d, 0x35, 0xbe, 0x05, 0xbd, 0xfd, 0xbe, 
0x4f, 0x4b, 0x29, 0x3f, 0x22, 0x36, 0x5e, 0xbe, 0x25, 0x98, 0x42, 0xbf, 
0x5e, 0x4a, 0xec, 0xbe, 0x69, 0x22, 0x84, 0x3e, 0x78, 0xd0, 0xb5, 0x3e, 
0x15, 0x98, 0x14, 0xbf, 0x57, 0x39, 0xba, 0xbe, 0x56, 0xff, 0xff, 0xff, 
0x04, 0x00, 0x00, 0x00, 0x40, 0x00, 0x00, 0x00, 0x4e, 0x08, 0x1f, 0xbf, 
0x71, 0xae, 0xd5, 0x3e, 0x13, 0x63, 0x85, 0xbe, 0xf2, 0x95, 0xf3, 0xbe, 
0x95, 0x69, 0xd6, 0x3e, 0xd2, 0x17, 0x0c, 0x3f, 0x3c, 0x3a, 0xa3, 0xbf, 
0xf1, 0xd6, 0x08, 0x3e, 0x4f, 0x6c, 0xf4, 0x3e, 0x91, 0x40, 0x89, 0x3f, 
0x49, 0x32, 0x28, 0x3f, 0x18, 0x9a, 0x70, 0xbf, 0x04, 0x03, 0xc6, 0x3e, 
0x1d, 0x9f, 0x8a, 0xbf, 0x40, 0xb5, 0x19, 0xbf, 0xa4, 0x16, 0x31, 0xbf, 
0xa2, 0xff, 0xff, 0xff, 0x04, 0x00, 0x00, 0x00, 0x04, 0x00, 0x00, 0x00, 
0x5e, 0x00, 0x85, 0x3f, 0xb2, 0xff, 0xff, 0xff, 0x04, 0x00, 0x00, 0x00, 
0x40, 0x00, 0x00, 0x00, 0x51, 0xee, 0x93, 0xbf, 0xbb, 0x2f, 0xb0, 0x3f, 
0x56, 0xf1, 0x0f, 0xbf, 0x5a, 0x01, 0x10, 0x3f, 0x13, 0x20, 0xb2, 0x3f, 
0x6b, 0xfc, 0x9f, 0x3f, 0xdd, 0xc9, 0x23, 0x3e, 0x94, 0x7a, 0x5b, 0xbd, 
0x8c, 0x81, 0xa9, 0x3f, 0x35, 0xd3, 0xd9, 0x3f, 0xf6, 0x7f, 0x94, 0x3f, 
0xbb, 0xbc, 0xa0, 0x3e, 0x2d, 0xeb, 0xa3, 0x3f, 0xe5, 0xb3, 0x8e, 0x3e, 
0x1e, 0x3d, 0x74, 0xbf, 0xfc, 0xa7, 0x83, 0xbf, 0x00, 0x00, 0x06, 0x00, 
0x08, 0x00, 0x04, 0x00, 0x06, 0x00, 0x00, 0x00, 0x04, 0x00, 0x00, 0x00, 
0x40, 0x00, 0x00, 0x00, 0x8f, 0x4f, 0xbb, 0xbf, 0xdc, 0xa4, 0xa0, 0x3f, 
0x82, 0xd9, 0xb1, 0x3f, 0x45, 0x2e, 0xd2, 0x3f, 0x29, 0x95, 0xb8, 0xbf, 
0x5d, 0x39, 0xd8, 0xbf, 0x08, 0x9f, 0xab, 0x3f, 0xe9, 0x3f, 0xc4, 0xbd, 
0xe3, 0x3e, 0xba, 0xbf, 0x99, 0x31, 0xa5, 0x3e, 0x53, 0x5a, 0xdf, 0x3f, 
0x3a, 0x6f, 0xc1, 0x3f, 0x10, 0x0a, 0xcf, 0xbe, 0xcb, 0x70, 0x80, 0xbf, 
0x6a, 0x16, 0xdd, 0x3f, 0x38, 0x65, 0xcc, 0x3f, 0x38, 0xfa, 0xff, 0xff, 
0x3c, 0xfa, 0xff, 0xff, 0x0f, 0x00, 0x00, 0x00, 0x4d, 0x4c, 0x49, 0x52, 
0x20, 0x43, 0x6f, 0x6e, 0x76, 0x65, 0x72, 0x74, 0x65, 0x64, 0x2e, 0x00, 
0x01, 0x00, 0x00, 0x00, 0x14, 0x00, 0x00, 0x00, 0x00, 0x00, 0x0e, 0x00, 
0x18, 0x00, 0x14, 0x00, 0x10, 0x00, 0x0c, 0x00, 0x08, 0x00, 0x04, 0x00, 
0x0e, 0x00, 0x00, 0x00, 0x14, 0x00, 0x00, 0x00, 0x1c, 0x00, 0x00, 0x00, 
0xe4, 0x00, 0x00, 0x00, 0xe8, 0x00, 0x00, 0x00, 0xec, 0x00, 0x00, 0x00, 
0x04, 0x00, 0x00, 0x00, 0x6d, 0x61, 0x69, 0x6e, 0x00, 0x00, 0x00, 0x00, 
0x03, 0x00, 0x00, 0x00, 0x88, 0x00, 0x00, 0x00, 0x38, 0x00, 0x00, 0x00, 
0x04, 0x00, 0x00, 0x00, 0x92, 0xff, 0xff, 0xff, 0x10, 0x00, 0x00, 0x00, 
0x00, 0x00, 0x00, 0x08, 0x0c, 0x00, 0x00, 0x00, 0x10, 0x00, 0x00, 0x00, 
0xb4, 0xfa, 0xff, 0xff, 0x01, 0x00, 0x00, 0x00, 0x09, 0x00, 0x00, 0x00, 
0x03, 0x00, 0x00, 0x00, 0x08, 0x00, 0x00, 0x00, 0x04, 0x00, 0x00, 0x00, 
0x03, 0x00, 0x00, 0x00, 0xc2, 0xff, 0xff, 0xff, 0x18, 0x00, 0x00, 0x00, 
0x00, 0x00, 0x00, 0x08, 0x18, 0x00, 0x00, 0x00, 0x1c, 0x00, 0x00, 0x00, 
0x00, 0x00, 0x06, 0x00, 0x08, 0x00, 0x07, 0x00, 0x06, 0x00, 0x00, 0x00, 
0x00, 0x00, 0x00, 0x01, 0x01, 0x00, 0x00, 0x00, 0x08, 0x00, 0x00, 0x00, 
0x03, 0x00, 0x00, 0x00, 0x07, 0x00, 0x00, 0x00, 0x05, 0x00, 0x00, 0x00, 
0x02, 0x00, 0x00, 0x00, 0x00, 0x00, 0x0e, 0x00, 0x14, 0x00, 0x00, 0x00, 
0x10, 0x00, 0x0c, 0x00, 0x0b, 0x00, 0x04, 0x00, 0x0e, 0x00, 0x00, 0x00, 
0x1c, 0x00, 0x00, 0x00, 0x00, 0x00, 0x00, 0x08, 0x1c, 0x00, 0x00, 0x00, 
0x20, 0x00, 0x00, 0x00, 0x0c, 0x00, 0x08, 0x00, 0x07, 0x00, 0x00, 0x00, 
0x00, 0x00, 0x06, 0x00, 0x0c, 0x00, 0x00, 0x00, 0x00, 0x00, 0x01, 0x01, 
0x01, 0x00, 0x00, 0x00, 0x07, 0x00, 0x00, 0x00, 0x03, 0x00, 0x00, 0x00, 
0x00, 0x00, 0x00, 0x00, 0x06, 0x00, 0x00, 0x00, 0x01, 0x00, 0x00, 0x00, 
0x01, 0x00, 0x00, 0x00, 0x09, 0x00, 0x00, 0x00, 0x01, 0x00, 0x00, 0x00, 
0x00, 0x00, 0x00, 0x00, 0x0a, 0x00, 0x00, 0x00, 0x68, 0x04, 0x00, 0x00, 
0x14, 0x04, 0x00, 0x00, 0xc0, 0x03, 0x00, 0x00, 0x84, 0x03, 0x00, 0x00, 
0x44, 0x03, 0x00, 0x00, 0x04, 0x03, 0x00, 0x00, 0xd0, 0x01, 0x00, 0x00, 
0x0c, 0x01, 0x00, 0x00, 0x60, 0x00, 0x00, 0x00, 0x04, 0x00, 0x00, 0x00, 
0xd6, 0xfb, 0xff, 0xff, 0x00, 0x00, 0x00, 0x01, 0x14, 0x00, 0x00, 0x00, 
0x1c, 0x00, 0x00, 0x00, 0x1c, 0x00, 0x00, 0x00, 0x0a, 0x00, 0x00, 0x00, 
0x34, 0x00, 0x00, 0x00, 0x02, 0x00, 0x00, 0x00, 0xff, 0xff, 0xff, 0xff, 
0x01, 0x00, 0x00, 0x00, 0xc0, 0xfb, 0xff, 0xff, 0x1b, 0x00, 0x00, 0x00, 
0x53, 0x74, 0x61, 0x74, 0x65, 0x66, 0x75, 0x6c, 0x50, 0x61, 0x72, 0x74, 
0x69, 0x74, 0x69, 0x6f, 0x6e, 0x65, 0x64, 0x43, 0x61, 0x6c, 0x6c, 0x5f, 
0x31, 0x3a, 0x30, 0x00, 0x02, 0x00, 0x00, 0x00, 0x01, 0x00, 0x00, 0x00, 
0x01, 0x00, 0x00, 0x00, 0x2e, 0xfc, 0xff, 0xff, 0x00, 0x00, 0x00, 0x01, 
0x14, 0x00, 0x00, 0x00, 0x1c, 0x00, 0x00, 0x00, 0x1c, 0x00, 0x00, 0x00, 
0x09, 0x00, 0x00, 0x00, 0x84, 0x00, 0x00, 0x00, 0x02, 0x00, 0x00, 0x00, 
0xff, 0xff, 0xff, 0xff, 0x10, 0x00, 0x00, 0x00, 0x18, 0xfc, 0xff, 0xff, 
0x6a, 0x00, 0x00, 0x00, 0x73, 0x65, 0x71, 0x75, 0x65, 0x6e, 0x74, 0x69, 
0x61, 0x6c, 0x5f, 0x32, 0x35, 0x39, 0x5f, 0x31, 0x2f, 0x64, 0x65, 0x6e, 
0x73, 0x65, 0x5f, 0x39, 0x32, 0x33, 0x5f, 0x31, 0x2f, 0x4d, 0x61, 0x74, 
0x4d, 0x75, 0x6c, 0x3b, 0x73, 0x65, 0x71, 0x75, 0x65, 0x6e, 0x74, 0x69, 
0x61, 0x6c, 0x5f, 0x32, 0x35, 0x39, 0x5f, 0x31, 0x2f, 0x64, 0x65, 0x6e, 
0x73, 0x65, 0x5f, 0x39, 0x32, 0x33, 0x5f, 0x31, 0x2f, 0x52, 0x65, 0x6c, 
0x75, 0x3b, 0x73, 0x65, 0x71, 0x75, 0x65, 0x6e, 0x74, 0x69, 0x61, 0x6c, 
0x5f, 0x32, 0x35, 0x39, 0x5f, 0x31, 0x2f, 0x64, 0x65, 0x6e, 0x73, 0x65, 
0x5f, 0x39, 0x32, 0x33, 0x5f, 0x31, 0x2f, 0x42, 0x69, 0x61, 0x73, 0x41, 
0x64, 0x64, 0x00, 0x00, 0x02, 0x00, 0x00, 0x00, 0x01, 0x00, 0x00, 0x00, 
0x10, 0x00, 0x00, 0x00, 0xd6, 0xfc, 0xff, 0xff, 0x00, 0x00, 0x00, 0x01, 
0x14, 0x00, 0x00, 0x00, 0x1c, 0x00, 0x00, 0x00, 0x1c, 0x00, 0x00, 0x00, 
0x08, 0x00, 0x00, 0x00, 0x84, 0x00, 0x00, 0x00, 0x02, 0x00, 0x00, 0x00, 
0xff, 0xff, 0xff, 0xff, 0x10, 0x00, 0x00, 0x00, 0xc0, 0xfc, 0xff, 0xff, 
0x6a, 0x00, 0x00, 0x00, 0x73, 0x65, 0x71, 0x75, 0x65, 0x6e, 0x74, 0x69, 
0x61, 0x6c, 0x5f, 0x32, 0x35, 0x39, 0x5f, 0x31, 0x2f, 0x64, 0x65, 0x6e, 
0x73, 0x65, 0x5f, 0x39, 0x32, 0x32, 0x5f, 0x31, 0x2f, 0x4d, 0x61, 0x74, 
0x4d, 0x75, 0x6c, 0x3b, 0x73, 0x65, 0x71, 0x75, 0x65, 0x6e, 0x74, 0x69, 
0x61, 0x6c, 0x5f, 0x32, 0x35, 0x39, 0x5f, 0x31, 0x2f, 0x64, 0x65, 0x6e, 
0x73, 0x65, 0x5f, 0x39, 0x32, 0x32, 0x5f, 0x31, 0x2f, 0x52, 0x65, 0x6c, 
0x75, 0x3b, 0x73, 0x65, 0x71, 0x75, 0x65, 0x6e, 0x74, 0x69, 0x61, 0x6c, 
0x5f, 0x32, 0x35, 0x39, 0x5f, 0x31, 0x2f, 0x64, 0x65, 0x6e, 0x73, 0x65, 
0x5f, 0x39, 0x32, 0x32, 0x5f, 0x31, 0x2f, 0x42, 0x69, 0x61, 0x73, 0x41, 
0x64, 0x64, 0x00, 0x00, 0x02, 0x00, 0x00, 0x00, 0x01, 0x00, 0x00, 0x00, 
0x10, 0x00, 0x00, 0x00, 0x00, 0x00, 0x16, 0x00, 0x1c, 0x00, 0x18, 0x00, 
0x17, 0x00, 0x10, 0x00, 0x0c, 0x00, 0x08, 0x00, 0x00, 0x00, 0x00, 0x00, 
0x00, 0x00, 0x07, 0x00, 0x16, 0x00, 0x00, 0x00, 0x00, 0x00, 0x00, 0x01, 
0x20, 0x00, 0x00, 0x00, 0xf0, 0x00, 0x00, 0x00, 0x07, 0x00, 0x00, 0x00, 
0x00, 0x00, 0x00, 0x09, 0x0c, 0x01, 0x00, 0x00, 0x0c, 0x00, 0x0c, 0x00, 
0x00, 0x00, 0x00, 0x00, 0x08, 0x00, 0x04, 0x00, 0x0c, 0x00, 0x00, 0x00, 
0x08, 0x00, 0x00, 0x00, 0x88, 0x00, 0x00, 0x00, 0x10, 0x00, 0x00, 0x00, 
0x00, 0x00, 0x00, 0x00, 0x00, 0x00, 0x00, 0x00, 0x00, 0x00, 0x00, 0x00, 
0x00, 0x00, 0x00, 0x00, 0x00, 0x00, 0x00, 0x00, 0x00, 0x00, 0x00, 0x00, 
0x00, 0x00, 0x00, 0x00, 0x00, 0x00, 0x00, 0x00, 0x00, 0x00, 0x00, 0x00, 
0x00, 0x00, 0x00, 0x00, 0x00, 0x00, 0x00, 0x00, 0x00, 0x00, 0x00, 0x00, 
0x00, 0x00, 0x00, 0x00, 0x00, 0x00, 0x00, 0x00, 0x00, 0x00, 0x00, 0x00, 
0x00, 0x00, 0x00, 0x00, 0x00, 0x00, 0x00, 0x00, 0x00, 0x00, 0x00, 0x00, 
0x00, 0x00, 0x00, 0x00, 0x00, 0x00, 0x00, 0x00, 0x00, 0x00, 0x00, 0x00, 
0x00, 0x00, 0x00, 0x00, 0x00, 0x00, 0x00, 0x00, 0x00, 0x00, 0x00, 0x00, 
0x00, 0x00, 0x00, 0x00, 0x00, 0x00, 0x00, 0x00, 0x00, 0x00, 0x00, 0x00, 
0x00, 0x00, 0x00, 0x00, 0x00, 0x00, 0x00, 0x00, 0x00, 0x00, 0x00, 0x00, 
0x00, 0x00, 0x00, 0x00, 0x00, 0x00, 0x00, 0x00, 0x10, 0x00, 0x00, 0x00, 
0x85, 0x0c, 0x1a, 0x3b, 0xfe, 0xb2, 0xf3, 0x3a, 0x32, 0x0f, 0x0a, 0x3b, 
0x6e, 0x49, 0x2e, 0x3b, 0xe9, 0xd8, 0xda, 0x3a, 0x01, 0x0a, 0x30, 0x3b, 
0x70, 0xd4, 0x14, 0x3b, 0x6b, 0x44, 0xfb, 0x3a, 0xa6, 0xc4, 0x0f, 0x3b, 
0xb1, 0x89, 0x0e, 0x3b, 0x1a, 0x21, 0xdf, 0x3a, 0x69, 0x48, 0x32, 0x3b, 
0xda, 0xe9, 0x85, 0x3b, 0xb7, 0xe0, 0x09, 0x3b, 0x28, 0x94, 0x0a, 0x3b, 
0x71, 0x1f, 0x11, 0x3b, 0x23, 0x00, 0x00, 0x00, 0x73, 0x65, 0x71, 0x75, 
0x65, 0x6e, 0x74, 0x69, 0x61, 0x6c, 0x5f, 0x32, 0x35, 0x39, 0x5f, 0x31, 
0x2f, 0x64, 0x65, 0x6e, 0x73, 0x65, 0x5f, 0x39, 0x32, 0x32, 0x5f, 0x31, 
0x2f, 0x4d, 0x61, 0x74, 0x4d, 0x75, 0x6c, 0x00, 0x02, 0x00, 0x00, 0x00, 
0x10, 0x00, 0x00, 0x00, 0x90, 0x01, 0x00, 0x00, 0x16, 0xff, 0xff, 0xff, 
0x00, 0x00, 0x00, 0x01, 0x10, 0x00, 0x00, 0x00, 0x10, 0x00, 0x00, 0x00, 
0x06, 0x00, 0x00, 0x00, 0x1c, 0x00, 0x00, 0x00, 0xa0, 0xfe, 0xff, 0xff, 
0x0f, 0x00, 0x00, 0x00, 0x61, 0x72, 0x69, 0x74, 0x68, 0x2e, 0x63, 0x6f, 
0x6e, 0x73, 0x74, 0x61, 0x6e, 0x74, 0x34, 0x00, 0x02, 0x00, 0x00, 0x00, 
0x10, 0x00, 0x00, 0x00, 0x10, 0x00, 0x00, 0x00, 0x52, 0xff, 0xff, 0xff, 
0x00, 0x00, 0x00, 0x01, 0x10, 0x00, 0x00, 0x00, 0x10, 0x00, 0x00, 0x00, 
0x05, 0x00, 0x00, 0x00, 0x1c, 0x00, 0x00, 0x00, 0xdc, 0xfe, 0xff, 0xff, 
0x0f, 0x00, 0x00, 0x00, 0x61, 0x72, 0x69, 0x74, 0x68, 0x2e, 0x63, 0x6f, 
0x6e, 0x73, 0x74, 0x61, 0x6e, 0x74, 0x33, 0x00, 0x02, 0x00, 0x00, 0x00, 
0x01, 0x00, 0x00, 0x00, 0x10, 0x00, 0x00, 0x00, 0x8e, 0xff, 0xff, 0xff, 
0x00, 0x00, 0x00, 0x01, 0x10, 0x00, 0x00, 0x00, 0x10, 0x00, 0x00, 0x00, 
0x04, 0x00, 0x00, 0x00, 0x1c, 0x00, 0x00, 0x00, 0x18, 0xff, 0xff, 0xff, 
0x0f, 0x00, 0x00, 0x00, 0x61, 0x72, 0x69, 0x74, 0x68, 0x2e, 0x63, 0x6f, 
0x6e, 0x73, 0x74, 0x61, 0x6e, 0x74, 0x32, 0x00, 0x01, 0x00, 0x00, 0x00, 
0x01, 0x00, 0x00, 0x00, 0xc6, 0xff, 0xff, 0xff, 0x00, 0x00, 0x00, 0x01, 
0x10, 0x00, 0x00, 0x00, 0x10, 0x00, 0x00, 0x00, 0x03, 0x00, 0x00, 0x00, 
0x1c, 0x00, 0x00, 0x00, 0x50, 0xff, 0xff, 0xff, 0x0f, 0x00, 0x00, 0x00, 
0x61, 0x72, 0x69, 0x74, 0x68, 0x2e, 0x63, 0x6f, 0x6e, 0x73, 0x74, 0x61, 
0x6e, 0x74, 0x31, 0x00, 0x01, 0x00, 0x00, 0x00, 0x10, 0x00, 0x00, 0x00, 
0x00, 0x00, 0x16, 0x00, 0x18, 0x00, 0x14, 0x00, 0x00, 0x00, 0x10, 0x00, 
0x0c, 0x00, 0x08, 0x00, 0x00, 0x00, 0x00, 0x00, 0x00, 0x00, 0x07, 0x00, 
0x16, 0x00, 0x00, 0x00, 0x00, 0x00, 0x00, 0x01, 0x10, 0x00, 0x00, 0x00, 
0x10, 0x00, 0x00, 0x00, 0x02, 0x00, 0x00, 0x00, 0x1c, 0x00, 0x00, 0x00, 
0xa0, 0xff, 0xff, 0xff, 0x0e, 0x00, 0x00, 0x00, 0x61, 0x72, 0x69, 0x74, 
0x68, 0x2e, 0x63, 0x6f, 0x6e, 0x73, 0x74, 0x61, 0x6e, 0x74, 0x00, 0x00, 
0x01, 0x00, 0x00, 0x00, 0x10, 0x00, 0x00, 0x00, 0x00, 0x00, 0x16, 0x00, 
0x1c, 0x00, 0x18, 0x00, 0x00, 0x00, 0x14, 0x00, 0x10, 0x00, 0x0c, 0x00, 
0x00, 0x00, 0x00, 0x00, 0x08, 0x00, 0x07, 0x00, 0x16, 0x00, 0x00, 0x00, 
0x00, 0x00, 0x00, 0x01, 0x14, 0x00, 0x00, 0x00, 0x20, 0x00, 0x00, 0x00, 
0x20, 0x00, 0x00, 0x00, 0x01, 0x00, 0x00, 0x00, 0x40, 0x00, 0x00, 0x00, 
0x02, 0x00, 0x00, 0x00, 0xff, 0xff, 0xff, 0xff, 0x90, 0x01, 0x00, 0x00, 
0x04, 0x00, 0x04, 0x00, 0x04, 0x00, 0x00, 0x00, 0x23, 0x00, 0x00, 0x00, 
0x73, 0x65, 0x72, 0x76, 0x69, 0x6e, 0x67, 0x5f, 0x64, 0x65, 0x66, 0x61, 
0x75, 0x6c, 0x74, 0x5f, 0x6b, 0x65, 0x72, 0x61, 0x73, 0x5f, 0x74, 0x65, 
0x6e, 0x73, 0x6f, 0x72, 0x5f, 0x32, 0x34, 0x32, 0x33, 0x3a, 0x30, 0x00, 
0x02, 0x00, 0x00, 0x00, 0x01, 0x00, 0x00, 0x00, 0x90, 0x01, 0x00, 0x00, 
0x01, 0x00, 0x00, 0x00, 0x10, 0x00, 0x00, 0x00, 0x0c, 0x00, 0x10, 0x00, 
0x0f, 0x00, 0x00, 0x00, 0x08, 0x00, 0x04, 0x00, 0x0c, 0x00, 0x00, 0x00, 
0x09, 0x00, 0x00, 0x00, 0x0c, 0x00, 0x00, 0x00, 0x00, 0x00, 0x00, 0x09, 

};
const unsigned int model_int8_tflite_len = 9768;
